{
  "version": "1.0",
  "truncation": null,
  "padding": null,
  "added_tokens": [
    {
      "id": 6403,
      "content": "[CLS]",
      "single_word": false,
      "lstrip": false,
      "rstrip": false,
      "normalized": true,
      "special": false
    },
    {
      "id": 6404,
      "content": "[SEP]",
      "single_word": false,
      "lstrip": false,
      "rstrip": false,
      "normalized": true,
      "special": false
    },
    {
      "id": 6405,
      "content": "[PAD]",
      "single_word": false,
      "lstrip": false,
      "rstrip": false,
      "normalized": true,
      "special": false
    },
    {
      "id": 6406,
      "content": "[UNK]",
      "single_word": false,
      "lstrip": false,
      "rstrip": false,
      "normalized": true,
      "special": false
    },
    {
      "id": 6407,
      "content": "[MASK]",
      "single_word": false,
      "lstrip": false,
      "rstrip": false,
      "normalized": true,
      "special": false
    }
  ],
  "normalizer": null,
  "pre_tokenizer": {
    "type": "ByteLevel",
    "add_prefix_space": true,
    "trim_offsets": true,
    "use_regex": true
  },
  "post_processor": {
    "type": "TemplateProcessing",
    "single": [
      {
        "SpecialToken": {
          "id": "[CLS]",
          "type_id": 0
        }
      },
      {
        "Sequence": {
          "id": "A",
          "type_id": 0
        }
      },
      {
        "SpecialToken": {
          "id": "[SEP]",
          "type_id": 0
        }
      }
    ],
    "pair": [
      {
        "SpecialToken": {
          "id": "[CLS]",
          "type_id": 0
        }
      },
      {
        "Sequence": {
          "id": "A",
          "type_id": 0
        }
      },
      {
        "SpecialToken": {
          "id": "[SEP]",
          "type_id": 0
        }
      },
      {
        "Sequence": {
          "id": "B",
          "type_id": 1
        }
      },
      {
        "SpecialToken": {
          "id": "[SEP]",
          "type_id": 1
        }
      }
    ],
    "special_tokens": {
      "[CLS]": {
        "id": "[CLS]",
        "ids": [
          6403
        ],
        "tokens": [
          "[CLS]"
        ]
      },
      "[SEP]": {
        "id": "[SEP]",
        "ids": [
          6404
        ],
        "tokens": [
          "[SEP]"
        ]
      }
    }
  },
  "decoder": {
    "type": "ByteLevel",
    "add_prefix_space": true,
    "trim_offsets": true,
    "use_regex": true
  },
  "model": {
    "type": "BPE",
    "dropout": null,
    "unk_token": null,
    "continuing_subword_prefix": null,
    "end_of_word_suffix": null,
    "fuse_unk": false,
    "byte_fallback": false,
    "vocab": {
      "!": 0,
      "\"": 1,
      "&": 2,
      "'": 3,
      "(": 4,
      ")": 5,
      "*": 6,
      ",": 7,
      "-": 8,
      "/": 9,
      "0": 10,
      "1": 11,
      "2": 12,
      "3": 13,
      "4": 14,
      "5": 15,
      "6": 16,
      "7": 17,
      "8": 18,
      "9": 19,
      ":": 20,
      ";": 21,
      "?": 22,
      "A": 23,
      "B": 24,
      "C": 25,
      "D": 26,
      "E": 27,
      "F": 28,
      "G": 29,
      "H": 30,
      "I": 31,
      "J": 32,
      "K": 33,
      "L": 34,
      "M": 35,
      "N": 36,
      "O": 37,
      "P": 38,
      "Q": 39,
      "R": 40,
      "S": 41,
      "T": 42,
      "U": 43,
      "V": 44,
      "W": 45,
      "X": 46,
      "Y": 47,
      "Z": 48,
      "[": 49,
      "\\": 50,
      "]": 51,
      "a": 52,
      "b": 53,
      "c": 54,
      "d": 55,
      "e": 56,
      "f": 57,
      "g": 58,
      "h": 59,
      "i": 60,
      "j": 61,
      "k": 62,
      "l": 63,
      "m": 64,
      "n": 65,
      "o": 66,
      "p": 67,
      "q": 68,
      "r": 69,
      "s": 70,
      "t": 71,
      "u": 72,
      "v": 73,
      "w": 74,
      "x": 75,
      "y": 76,
      "z": 77,
      "{": 78,
      "}": 79,
      "§": 80,
      "°": 81,
      "Â": 82,
      "â": 83,
      "Ċ": 84,
      "Ġ": 85,
      "Ģ": 86,
      "Ķ": 87,
      "ĸ": 88,
      "ĺ": 89,
      "Ļ": 90,
      "ł": 91,
      "Ġt": 92,
      "Ġa": 93,
      "he": 94,
      "in": 95,
      "Ġo": 96,
      "Ġthe": 97,
      "re": 98,
      "is": 99,
      "Ġs": 100,
      "nd": 101,
      "Ġw": 102,
      "er": 103,
      "it": 104,
      "at": 105,
      "on": 106,
      "Ġ\"": 107,
      "en": 108,
      "Ġof": 109,
      "es": 110,
      "Ġp": 111,
      "Ġc": 112,
      "Ġto": 113,
      "Ġf": 114,
      "Ġh": 115,
      "Ġm": 116,
      "Ġand": 117,
      "or": 118,
      "Ġb": 119,
      "Ġth": 120,
      "an": 121,
      "ou": 122,
      "ing": 123,
      "al": 124,
      "Ġin": 125,
      "Ġd": 126,
      "le": 127,
      "ed": 128,
      "st": 129,
      "ic": 130,
      "ar": 131,
      "Ġis": 132,
      "Ġe": 133,
      "Ġn": 134,
      "ly": 135,
      "om": 136,
      "il": 137,
      "ion": 138,
      "se": 139,
      "Ġbe": 140,
      "Ġl": 141,
      "ve": 142,
      "as": 143,
      "Ġit": 144,
      "Ġthat": 145,
      "Ġ'": 146,
      "ce": 147,
      "ct": 148,
      "Ġre": 149,
      "ent": 150,
      "Ġwh": 151,
      "Ġg": 152,
      "Ġno": 153,
      "ut": 154,
      "op": 155,
      "ver": 156,
      "et": 157,
      "im": 158,
      "Ġas": 159,
      "Ġfor": 160,
      "ow": 161,
      "Ġu": 162,
      "ir": 163,
      "Ġhe": 164,
      "ig": 165,
      "Ġal": 166,
      "Ġan": 167,
      "Ġ-": 168,
      "Ġon": 169,
      "od": 170,
      "Ġst": 171,
      "her": 172,
      "ch": 173,
      "Ġha": 174,
      "ur": 175,
      "ay": 176,
      "ity": 177,
      "os": 178,
      "ith": 179,
      "ill": 180,
      "id": 181,
      "Ġcon": 182,
      "Ġthis": 183,
      "ol": 184,
      "Ġnot": 185,
      "if": 186,
      "ess": 187,
      "ist": 188,
      "Ġwith": 189,
      "el": 190,
      "ra": 191,
      "Ġare": 192,
      "ul": 193,
      "Ġmo": 194,
      "Ġor": 195,
      "The": 196,
      "âĢ": 197,
      "Ġsu": 198,
      "ke": 199,
      "pe": 200,
      "Ġhis": 201,
      "Ġ(": 202,
      "ble": 203,
      "ation": 204,
      "ĠG": 205,
      "ĠI": 206,
      "Ġpr": 207,
      "ld": 208,
      "Ġv": 209,
      "sel": 210,
      "Ġhave": 211,
      "th": 212,
      "ad": 213,
      "est": 214,
      "Ġ1": 215,
      "Ġwe": 216,
      "Ġex": 217,
      "âĢĻ": 218,
      "ht": 219,
      "Ġwill": 220,
      "am": 221,
      "man": 222,
      "ate": 223,
      "us": 224,
      "qu": 225,
      "ous": 226,
      "Ġwho": 227,
      "ci": 228,
      "Ġab": 229,
      "very": 230,
      "Ġr": 231,
      "Ġall": 232,
      "ive": 233,
      "Ġde": 234,
      "ich": 235,
      "ust": 236,
      "ain": 237,
      "Ġne": 238,
      "ers": 239,
      "ĠE": 240,
      "ant": 241,
      "ĠB": 242,
      "ge": 243,
      "iv": 244,
      "Ġy": 245,
      "Ġpe": 246,
      "ood": 247,
      "Ġsom": 248,
      "Ġdo": 249,
      "che": 250,
      "Ġph": 251,
      "ie": 252,
      "Ġhas": 253,
      "Ġthey": 254,
      "ure": 255,
      "out": 256,
      "ould": 257,
      "Ġse": 258,
      "Ġfr": 259,
      "ight": 260,
      "Ġev": 261,
      "ople": 262,
      "ĠN": 263,
      "Ġat": 264,
      "self": 265,
      "Ġtr": 266,
      "em": 267,
      "nt": 268,
      "Ġyou": 269,
      "Ġ\"'": 270,
      "oug": 271,
      "ally": 272,
      "Ġint": 273,
      "and": 274,
      "Ġthem": 275,
      "ence": 276,
      "Ġpeople": 277,
      "Ġwhe": 278,
      "ilos": 279,
      "ast": 280,
      "ther": 281,
      "Ġcom": 282,
      "res": 283,
      "pp": 284,
      "ong": 285,
      "iet": 286,
      "pt": 287,
      "ilosop": 288,
      "ond": 289,
      "Ġwhich": 290,
      "Ġwor": 291,
      "oral": 292,
      "Ġmore": 293,
      "sche": 294,
      "Ġj": 295,
      "Ġle": 296,
      "Ġphilosop": 297,
      "zsche": 298,
      "Ġso": 299,
      "art": 300,
      "ietzsche": 301,
      "og": 302,
      "Ġsp": 303,
      "Ġfrom": 304,
      "ere": 305,
      "Ġwhat": 306,
      "Ġabout": 307,
      "Ġhim": 308,
      "ĠW": 309,
      "ings": 310,
      "ard": 311,
      "ĠNietzsche": 312,
      "ies": 313,
      "ot": 314,
      "Ġcan": 315,
      "kn": 316,
      "Ġthere": 317,
      "Ġtheir": 318,
      "Ġsh": 319,
      "Th": 320,
      "Ġby": 321,
      "la": 322,
      "Ġme": 323,
      "ĠP": 324,
      "Ġfa": 325,
      "ud": 326,
      "ĠĠ": 327,
      "Ġman": 328,
      "Ġmoral": 329,
      "ical": 330,
      "Ġpro": 331,
      "Ġwas": 332,
      "Ġeven": 333,
      "Ġar": 334,
      "ound": 335,
      "Ġany": 336,
      "ough": 337,
      "ike": 338,
      "Ġus": 339,
      "ak": 340,
      "ves": 341,
      "ĠA": 342,
      "ĠThe": 343,
      "reat": 344,
      "Ġits": 345,
      "hing": 346,
      "Ġlo": 347,
      "Ġmost": 348,
      "Ġevery": 349,
      "ions": 350,
      "Ġdis": 351,
      "erman": 352,
      "ans": 353,
      "Ġonly": 354,
      "know": 355,
      "ort": 356,
      "ance": 357,
      "ĠS": 358,
      "Ġfe": 359,
      "au": 360,
      "ect": 361,
      "ment": 362,
      "Ġthese": 363,
      "Ġpre": 364,
      "ame": 365,
      "ok": 366,
      "ter": 367,
      "Ġqu": 368,
      "irit": 369,
      "Ġsome": 370,
      "Ġour": 371,
      "Ġun": 372,
      "ĠGerman": 373,
      ",'": 374,
      "one": 375,
      "ue": 376,
      "uth": 377,
      "eri": 378,
      "ap": 379,
      "Ġch": 380,
      "Ġlike": 381,
      "Ġone": 382,
      "ac": 383,
      "able": 384,
      "ind": 385,
      "ays": 386,
      "Ġspirit": 387,
      "ness": 388,
      "ore": 389,
      "un": 390,
      "Ġknow": 391,
      "Ġother": 392,
      "nder": 393,
      "ell": 394,
      "Ġexp": 395,
      "Ġen": 396,
      "ism": 397,
      "Ġbut": 398,
      "Ġjust": 399,
      "led": 400,
      "It": 401,
      "cc": 402,
      "ff": 403,
      "Ġty": 404,
      "ine": 405,
      "Ġhow": 406,
      "Ġwould": 407,
      "ide": 408,
      "Ġwhen": 409,
      "ĠH": 410,
      "Ġbel": 411,
      "Ġbeen": 412,
      "ful": 413,
      "Ġcons": 414,
      "This": 415,
      "ake": 416,
      "uch": 417,
      "int": 418,
      "Ġpers": 419,
      "Ġbec": 420,
      "ife": 421,
      "ink": 422,
      "hy": 423,
      "si": 424,
      "olog": 425,
      "Ġphilosopher": 426,
      "Ġgood": 427,
      "Ġsomet": 428,
      "Ġim": 429,
      "ens": 430,
      "Ġpo": 431,
      "ult": 432,
      "Ġover": 433,
      "ree": 434,
      "Ġitself": 435,
      "Ġstr": 436,
      "pect": 437,
      "ag": 438,
      "rit": 439,
      "Ġ2": 440,
      "ĠF": 441,
      "ĠM": 442,
      "ction": 443,
      ")\"": 444,
      "bl": 445,
      "erm": 446,
      "selves": 447,
      "Ġlife": 448,
      "Ġwant": 449,
      "Ġres": 450,
      "Ġ,": 451,
      "ars": 452,
      "so": 453,
      "um": 454,
      "Ġif": 455,
      "Ġsomething": 456,
      "In": 457,
      "ire": 458,
      "tain": 459,
      "uman": 460,
      "ated": 461,
      "Ġup": 462,
      "ach": 463,
      "ious": 464,
      "oc": 465,
      "ĠC": 466,
      "Ġag": 467,
      "Ġout": 468,
      "Ġsou": 469,
      "Ġgreat": 470,
      "Ġunder": 471,
      "Ġsub": 472,
      "Ġvery": 473,
      "ise": 474,
      "ause": 475,
      "Ġmuch": 476,
      "ang": 477,
      "Ġneed": 478,
      "ri": 479,
      "Ġthings": 480,
      "Ġinst": 481,
      "Ġgen": 482,
      "Ġtruth": 483,
      "ces": 484,
      "Ġte": 485,
      "Ġam": 486,
      "Ġgr": 487,
      "Ġthan": 488,
      "Ġthink": 489,
      "Ġval": 490,
      "Ġinto": 491,
      "ress": 492,
      "Ġtype": 493,
      "Ġperson": 494,
      "Ġsoul": 495,
      "yond": 496,
      "all": 497,
      "fere": 498,
      "ng": 499,
      "vil": 500,
      "ĠO": 501,
      "Ġwell": 502,
      "Ġpos": 503,
      "Ġhimself": 504,
      "ep": 505,
      "ian": 506,
      "ost": 507,
      "ĠR": 508,
      "Ġway": 509,
      "Ġca": 510,
      "Ġhig": 511,
      "iz": 512,
      "ro": 513,
      "Ġwom": 514,
      "Ġ\"-": 515,
      "Ġtoo": 516,
      "Ġsuch": 517,
      "Ġmorality": 518,
      "ose": 519,
      "Ġpart": 520,
      "Ġbo": 521,
      "cept": 522,
      "ations": 523,
      "ple": 524,
      "Ġra": 525,
      "ition": 526,
      "Ġrel": 527,
      "ĠGood": 528,
      "ĠBe": 529,
      "Ġsay": 530,
      "ice": 531,
      "Ġcont": 532,
      "thing": 533,
      "ues": 534,
      "ory": 535,
      "Ġdes": 536,
      "Ġdif": 537,
      "But": 538,
      "ab": 539,
      "ass": 540,
      "cience": 541,
      "ĠEvil": 542,
      "Ġfeel": 543,
      "Ġbelie": 544,
      "age": 545,
      "ks": 546,
      "ual": 547,
      "red": 548,
      "ish": 549,
      "ope": 550,
      "ime": 551,
      "ower": 552,
      "irst": 553,
      "Ġdoes": 554,
      "Ġagain": 555,
      "hat": 556,
      "und": 557,
      "ĠD": 558,
      "ern": 559,
      "irt": 560,
      "GE": 561,
      "ense": 562,
      "ome": 563,
      "Ġstill": 564,
      "Ġseem": 565,
      "Ġad": 566,
      "ertain": 567,
      "Ġmight": 568,
      "Ġind": 569,
      "ility": 570,
      "Ġthemselves": 571,
      "Ġfact": 572,
      "act": 573,
      "ĠT": 574,
      "Ġacc": 575,
      "ary": 576,
      "Ġalso": 577,
      "Ġvirt": 578,
      "Ġart": 579,
      "ĠBeyond": 580,
      "ject": 581,
      "Ġapp": 582,
      "ishe": 583,
      "Ġcl": 584,
      "Ġhuman": 585,
      "our": 586,
      "urope": 587,
      "ĠBGE": 588,
      "aste": 589,
      "Ġterm": 590,
      "Ġread": 591,
      "ives": 592,
      "And": 593,
      "ner": 594,
      "ru": 595,
      "tle": 596,
      "ward": 597,
      "Ġ8": 598,
      "Ġsel": 599,
      "ite": 600,
      "ates": 601,
      "Ġper": 602,
      "ĠEurope": 603,
      "Ġwhere": 604,
      "most": 605,
      "Ġent": 606,
      "inct": 607,
      "ath": 608,
      "Ġmy": 609,
      "Ġright": 610,
      "aps": 611,
      "Ġpoint": 612,
      "),": 613,
      "haps": 614,
      "pl": 615,
      "ĠV": 616,
      "Ġspe": 617,
      "ather": 618,
      "Ġfirst": 619,
      "stand": 620,
      "Ġbeing": 621,
      "Ġnew": 622,
      "ought": 623,
      "ĠL": 624,
      "Ġob": 625,
      "Ġsame": 626,
      "Ġpower": 627,
      "ict": 628,
      "Ġend": 629,
      "ign": 630,
      "Ġhad": 631,
      "Ġshould": 632,
      "Ġlove": 633,
      "ack": 634,
      "Ġbecause": 635,
      "ways": 636,
      "ined": 637,
      "ature": 638,
      "Ġlong": 639,
      "ason": 640,
      "Ġnoble": 641,
      "ĠIn": 642,
      "Ġmeans": 643,
      "Ġself": 644,
      "hen": 645,
      "Ġcould": 646,
      "Ġinc": 647,
      "Ġalways": 648,
      "Ġwere": 649,
      "Ġlook": 650,
      "Ġphilosophers": 651,
      "ĠâĢ": 652,
      "Ġide": 653,
      "Ġtaste": 654,
      "Ġcle": 655,
      "Ġfind": 656,
      "orm": 657,
      "ics": 658,
      "Ġbet": 659,
      "Ġreason": 660,
      "odu": 661,
      "ists": 662,
      "Ġyour": 663,
      "Ġmany": 664,
      "Ġdiffere": 665,
      "ty": 666,
      "ubl": 667,
      "wn": 668,
      "Ġact": 669,
      "Ġcla": 670,
      "Ġcertain": 671,
      "ount": 672,
      "Ġalmost": 673,
      "ately": 674,
      "Ġimp": 675,
      "18": 676,
      "der": 677,
      "end": 678,
      "ten": 679,
      "xt": 680,
      "Ġsort": 681,
      "Ġsense": 682,
      "Ġfar": 683,
      "Ġbad": 684,
      "Ġthought": 685,
      "Ġins": 686,
      "Ġword": 687,
      "Ġlet": 688,
      "Ġquest": 689,
      "Ġchar": 690,
      "Ġgener": 691,
      "He": 692,
      "pre": 693,
      "sy": 694,
      "Ġtime": 695,
      "ont": 696,
      "Ġpres": 697,
      "ently": 698,
      "ific": 699,
      "Ġenough": 700,
      "Ġconsid": 701,
      "sible": 702,
      "Ġinstinct": 703,
      "Ġwomen": 704,
      "Ġbook": 705,
      "Ġclaim": 706,
      "We": 707,
      "ever": 708,
      "fore": 709,
      "ms": 710,
      "the": 711,
      "Ġap": 712,
      "Ġthen": 713,
      "Ġwrit": 714,
      "Ġdang": 715,
      "edi": 716,
      "Ġher": 717,
      "oll": 718,
      "iew": 719,
      "Ġatt": 720,
      "akes": 721,
      "ove": 722,
      "ven": 723,
      "Ġtw": 724,
      "Ġown": 725,
      "Ġmake": 726,
      "Ġthr": 727,
      "Ġgo": 728,
      "vers": 729,
      "ĠIt": 730,
      "Ġphilosophy": 731,
      "ew": 732,
      "ial": 733,
      "Ġold": 734,
      "Ġopp": 735,
      "Ġcond": 736,
      "Ġhon": 737,
      "Ġbest": 738,
      "Ġref": 739,
      "Ġrem": 740,
      "Ġinter": 741,
      "Ġworld": 742,
      "Ġprof": 743,
      "ments": 744,
      "ily": 745,
      "Ġaw": 746,
      "Ġsch": 747,
      "ities": 748,
      "Ġthing": 749,
      "igin": 750,
      "Ġsuff": 751,
      "Ġcomm": 752,
      "Ġseems": 753,
      "ced": 754,
      "cess": 755,
      "not": 756,
      "ys": 757,
      "ĠK": 758,
      "read": 759,
      "Ġfin": 760,
      "ors": 761,
      "Ġthose": 762,
      "Ġinv": 763,
      "Ġdist": 764,
      "Ġreally": 765,
      "Ġhapp": 766,
      "istic": 767,
      "Ġwithout": 768,
      "Ġstrong": 769,
      "Ġrelig": 770,
      "wards": 771,
      "Ġperhaps": 772,
      "Ġdifferent": 773,
      "aid": 774,
      "get": 775,
      "ile": 776,
      "nce": 777,
      "Ġtake": 778,
      "ord": 779,
      "Ġdr": 780,
      "Ġem": 781,
      "Ġorigin": 782,
      "Ġview": 783,
      "ade": 784,
      "Ġ19": 785,
      "Ġdec": 786,
      "Ġexperi": 787,
      "Ġvalue": 788,
      "Ġagainst": 789,
      "sych": 790,
      "less": 791,
      "rist": 792,
      "we": 793,
      "Ġop": 794,
      "nds": 795,
      "Ġpla": 796,
      "Ġmis": 797,
      "Ġmet": 798,
      "Ġmust": 799,
      "arly": 800,
      "Ġeach": 801,
      "Ġlit": 802,
      "Ġreal": 803,
      "ody": 804,
      "old": 805,
      "empt": 806,
      "Ġunderstand": 807,
      "Ġdanger": 808,
      "Ġtwo": 809,
      "are": 810,
      "gr": 811,
      "Â§": 812,
      "Ġ3": 813,
      "ĠJ": 814,
      "ince": 815,
      "its": 816,
      "Ġfound": 817,
      "Ġmod": 818,
      "als": 819,
      "Ġinf": 820,
      "Ġsec": 821,
      "Ġsee": 822,
      "Ġcomp": 823,
      "Ġproble": 824,
      "Ġeverything": 825,
      "Ġdisc": 826,
      "day": 827,
      "ph": 828,
      "rodu": 829,
      "erv": 830,
      "Ġcall": 831,
      "Ġmen": 832,
      "Ġdays": 833,
      "vel": 834,
      "Ġget": 835,
      "Ġass": 836,
      "Ġnothing": 837,
      "Ġorder": 838,
      "Ġ15": 839,
      "cient": 840,
      "Ġtrans": 841,
      "ffect": 842,
      "Ġconscience": 843,
      "ology": 844,
      "ological": 845,
      "Ġquestion": 846,
      "Ġke": 847,
      "iness": 848,
      "ering": 849,
      "ating": 850,
      "Ġcr": 851,
      "Ġhist": 852,
      "Ġmus": 853,
      "arn": 854,
      "Ġel": 855,
      "Ġform": 856,
      "Ġhere": 857,
      "Ġconst": 858,
      "Ġconcept": 859,
      "Ġ10": 860,
      "Ġext": 861,
      "Ġnever": 862,
      "Ġsoci": 863,
      "aking": 864,
      "Ġwants": 865,
      "Ġhigher": 866,
      "ĠâĢĶ": 867,
      "ublishe": 868,
      "fter": 869,
      "ied": 870,
      "ll": 871,
      "to": 872,
      "Ġ5": 873,
      "Ġac": 874,
      "Ġsens": 875,
      "Ġoff": 876,
      "Ġple": 877,
      "Ġput": 878,
      "Ġpsych": 879,
      "Ġfore": 880,
      "Ġmat": 881,
      "ows": 882,
      "Ġstu": 883,
      "Ġstand": 884,
      "There": 885,
      "Ġwhose": 886,
      "erest": 887,
      "ocr": 888,
      "Ġsubtle": 889,
      "ngl": 890,
      "Ġpossible": 891,
      "Ġvirtues": 892,
      "Ġcharact": 893,
      "Ġsaid": 894,
      "ited": 895,
      "Ġcult": 896,
      "Ġhard": 897,
      "Ġmakes": 898,
      "alled": 899,
      "ically": 900,
      "icism": 901,
      "Ġeas": 902,
      "Ġreg": 903,
      "Ġalread": 904,
      "Ġstart": 905,
      "ĠGod": 906,
      "Ġran": 907,
      "Ġjud": 908,
      "Ġcannot": 909,
      "Ġmean": 910,
      "ude": 911,
      "Ġexpl": 912,
      "ledge": 913,
      "Ġneeds": 914,
      "Ġappe": 915,
      "Ġthrough": 916,
      "Ġalready": 917,
      "On": 918,
      "cise": 919,
      "den": 920,
      "Ġ4": 921,
      "Ġ9": 922,
      "Ġed": 923,
      "ĠThis": 924,
      "here": 925,
      "itions": 926,
      "Ġey": 927,
      "ild": 928,
      "Ġrec": 929,
      "ents": 930,
      "ention": 931,
      "own": 932,
      "They": 933,
      "quently": 934,
      "ĠEngl": 935,
      "iving": 936,
      "Ġfew": 937,
      "Ġourselves": 938,
      "erious": 939,
      "Ġbelong": 940,
      "Ġrespect": 941,
      "ĠCh": 942,
      "Ġconsider": 943,
      "Ġinterpre": 944,
      "Ġprofound": 945,
      "Ġschol": 946,
      "ween": 947,
      "bility": 948,
      "gu": 949,
      "ip": 950,
      "lat": 951,
      "ually": 952,
      "will": 953,
      "Ġ6": 954,
      "Ġage": 955,
      "Ġafter": 956,
      "Ġsur": 957,
      "atic": 958,
      "ences": 959,
      "Ġoften": 960,
      "Ġpl": 961,
      "Ġtoday": 962,
      "Ġbr": 963,
      "ick": 964,
      "omin": 965,
      "ental": 966,
      "Ġwhy": 967,
      "Ġnow": 968,
      "Ġuse": 969,
      "urn": 970,
      "Ġconc": 971,
      "ract": 972,
      "ular": 973,
      "ntrodu": 974,
      "Ġterms": 975,
      "Ġkeep": 976,
      "ĠEnglish": 977,
      "17": 978,
      "av": 979,
      "ase": 980,
      "bt": 981,
      "ber": 982,
      "ved": 983,
      "Ġess": 984,
      "ins": 985,
      "ative": 986,
      "Ġtowards": 987,
      "Ġfre": 988,
      "Ġmade": 989,
      "Ġbas": 990,
      "Ġback": 991,
      "ark": 992,
      "Ġbeg": 993,
      "Ġbefore": 994,
      "Ġla": 995,
      "Ġunt": 996,
      "Ġstre": 997,
      "Ġstate": 998,
      "oss": 999,
      "Ġdeg": 1000,
      "iven": 1001,
      "Ġwhether": 1002,
      "ĠWag": 1003,
      "ĠThere": 1004,
      "Ġbecome": 1005,
      "ĠFr": 1006,
      "rib": 1007,
      "Ġwoman": 1008,
      "undam": 1009,
      "Ġbetween": 1010,
      "Ġoppos": 1011,
      "Ġdangerous": 1012,
      "Ġmusic": 1013,
      "Ġelse": 1014,
      "Ġinterpret": 1015,
      "ntroduction": 1016,
      "ck": 1017,
      "ged": 1018,
      "hich": 1019,
      "ius": 1020,
      "po": 1021,
      "ug": 1022,
      "Ġ7": 1023,
      "Ġsy": 1024,
      "Ġsign": 1025,
      "Ġpity": 1026,
      "Ġfree": 1027,
      "Ġdou": 1028,
      "lect": 1029,
      "str": 1030,
      "Ġear": 1031,
      "ask": 1032,
      "asure": 1033,
      "Ġgives": 1034,
      "ution": 1035,
      "Ġheart": 1036,
      "Ġ18": 1037,
      "Ġwork": 1038,
      "Ġphilosoph": 1039,
      "Ġunc": 1040,
      "Ġtext": 1041,
      "Ġvalues": 1042,
      "Ġhigh": 1043,
      "Ġideas": 1044,
      "Ġwords": 1045,
      "Ġgeneral": 1046,
      "Ġcharacter": 1047,
      "ĠWagner": 1048,
      "16": 1049,
      "Zar": 1050,
      "body": 1051,
      "lin": 1052,
      "les": 1053,
      "me": 1054,
      "pic": 1055,
      "pid": 1056,
      "ving": 1057,
      "Ġk": 1058,
      "Ġes": 1059,
      "Ġtal": 1060,
      "ren": 1061,
      "Ġsim": 1062,
      "Ġserious": 1063,
      "Ġpass": 1064,
      "Ġfoll": 1065,
      "Ġfundam": 1066,
      "Ġmist": 1067,
      "ality": 1068,
      "Ġdet": 1069,
      "Ġever": 1070,
      "Ġgra": 1071,
      "imes": 1072,
      "Ġhel": 1073,
      "Ġonce": 1074,
      "pend": 1075,
      "ĠIntroduction": 1076,
      "Ġ16": 1077,
      "Ġexcept": 1078,
      "Ġwhole": 1079,
      "Ġabove": 1080,
      "Ġru": 1081,
      "ustra": 1082,
      "iece": 1083,
      "Ġtry": 1084,
      "Ġtrue": 1085,
      "Ġcome": 1086,
      "Ġlearn": 1087,
      "Ġshort": 1088,
      "Ġsubject": 1089,
      "Ġboth": 1090,
      "Ġfeeling": 1091,
      "Ġbooks": 1092,
      "Ġtransl": 1093,
      "Ġjudg": 1094,
      "cisely": 1095,
      "Ġstreng": 1096,
      "bar": 1097,
      "fic": 1098,
      "ii": 1099,
      "ians": 1100,
      "lt": 1101,
      "Ġut": 1102,
      "ĠÂ§": 1103,
      "ĠZar": 1104,
      "Ġtra": 1105,
      "Ġcent": 1106,
      "Ġcrit": 1107,
      "Ġcalled": 1108,
      "Ġmay": 1109,
      "Ġnature": 1110,
      "Ġless": 1111,
      "ases": 1112,
      "Ġconf": 1113,
      "Ġconse": 1114,
      "kept": 1115,
      "Ġprop": 1116,
      "Ġrather": 1117,
      "Ġworks": 1118,
      "ĠWhat": 1119,
      "Ġprecisely": 1120,
      "Ġquite": 1121,
      "Ġspiritual": 1122,
      "Ġexpress": 1123,
      "ccess": 1124,
      "Ġimm": 1125,
      "Ġcase": 1126,
      "Ġpartic": 1127,
      "Ġrare": 1128,
      "Ġbelieve": 1129,
      "athustra": 1130,
      "ording": 1131,
      "Ġappear": 1132,
      "ĠChrist": 1133,
      "Ġdoubt": 1134,
      "Ġhelp": 1135,
      "Ġstrength": 1136,
      "ltim": 1137,
      "13": 1138,
      "15": 1139,
      "What": 1140,
      "ace": 1141,
      "cy": 1142,
      "good": 1143,
      "ik": 1144,
      "oy": 1145,
      "over": 1146,
      "te": 1147,
      "ting": 1148,
      "ĠY": 1149,
      "Ġill": 1150,
      "Ġauth": 1151,
      "hes": 1152,
      "inci": 1153,
      "Ġscience": 1154,
      "Ġcor": 1155,
      "Ġdid": 1156,
      "Ġlast": 1157,
      "Ġlack": 1158,
      "Ġgl": 1159,
      "Ġgod": 1160,
      "ural": 1161,
      "Ġconv": 1162,
      "ĠBut": 1163,
      "Ġdoct": 1164,
      "Ġleast": 1165,
      "aken": 1166,
      "ĠAnd": 1167,
      "Ġthinking": 1168,
      "Ġinde": 1169,
      "Ġaway": 1170,
      "Ġlittle": 1171,
      "ground": 1172,
      "Ġproblem": 1173,
      "ublishes": 1174,
      "ĠZarathustra": 1175,
      "10": 1176,
      "12": 1177,
      "Be": 1178,
      "ache": 1179,
      "per": 1180,
      "xx": 1181,
      "Ġer": 1182,
      "Ġskept": 1183,
      "Ġpiece": 1184,
      "oud": 1185,
      "oura": 1186,
      "Ġder": 1187,
      "Ġdomin": 1188,
      "Ġequ": 1189,
      "Ġreve": 1190,
      "Ġgive": 1191,
      "Ġones": 1192,
      "Ġstates": 1193,
      "Ġhand": 1194,
      "olit": 1195,
      "Ġsuccess": 1196,
      "ĠGree": 1197,
      "Ġprinci": 1198,
      "though": 1199,
      "Ġexam": 1200,
      "Ġabs": 1201,
      "Ġdeep": 1202,
      "Ġevil": 1203,
      "Ġcomes": 1204,
      "ered": 1205,
      "Ġfaith": 1206,
      "Ġmorals": 1207,
      "ĠSch": 1208,
      "Ġsomeone": 1209,
      "Ġgrow": 1210,
      "Ġbelief": 1211,
      "Ġappro": 1212,
      "ished": 1213,
      "Ġreligion": 1214,
      "Ġexperience": 1215,
      "Ġexception": 1216,
      "ĠChristian": 1217,
      "Ġauthor": 1218,
      "bit": 1219,
      "bor": 1220,
      "ia": 1221,
      "ible": 1222,
      "ning": 1223,
      "pr": 1224,
      "rine": 1225,
      "under": 1226,
      "where": 1227,
      "which": 1228,
      "ĠU": 1229,
      "Ġest": 1230,
      "iss": 1231,
      "ons": 1232,
      "ene": 1233,
      "Ġpain": 1234,
      "Ġcreat": 1235,
      "Ġhid": 1236,
      "Ġmedi": 1237,
      "ange": 1238,
      "arm": 1239,
      "Ġears": 1240,
      "Ġname": 1241,
      "Ġlight": 1242,
      "ety": 1243,
      "Ġforce": 1244,
      "Ġultim": 1245,
      "igh": 1246,
      "ury": 1247,
      "Ġconce": 1248,
      "Ġsupp": 1249,
      "Ġ14": 1250,
      "cious": 1251,
      "Ġfrie": 1252,
      "ĠWe": 1253,
      "Ġanything": 1254,
      "ĠGermans": 1255,
      "Ġknowledge": 1256,
      "Ġperspect": 1257,
      "Ġgreatest": 1258,
      "ize": 1259,
      "ized": 1260,
      "Ġhumanity": 1261,
      "Ġdecis": 1262,
      "Ġmodern": 1263,
      "Ġsecond": 1264,
      "Ġrank": 1265,
      "Ġphilosophical": 1266,
      "14": 1267,
      "If": 1268,
      "br": 1269,
      "eople": 1270,
      "ho": 1271,
      "ier": 1272,
      "other": 1273,
      "rong": 1274,
      "uc": 1275,
      "uine": 1276,
      "Ġing": 1277,
      "ĠTh": 1278,
      "Ġable": 1279,
      "Ġsl": 1280,
      "Ġsla": 1281,
      "Ġsince": 1282,
      "enh": 1283,
      "Ġcour": 1284,
      "Ġfam": 1285,
      "Ġfather": 1286,
      "Ġhy": 1287,
      "Ġmast": 1288,
      "anity": 1289,
      "ances": 1290,
      "Ġday": 1291,
      "Ġdest": 1292,
      "ices": 1293,
      "Ġwhile": 1294,
      "Ġgu": 1295,
      "ute": 1296,
      "Ġalone": 1297,
      "Ġ12": 1298,
      "usion": 1299,
      "ively": 1300,
      "Ġdev": 1301,
      "ived": 1302,
      "Ġinterest": 1303,
      "Ġfail": 1304,
      "Ġarr": 1305,
      "aphy": 1306,
      "Ġhowever": 1307,
      "Ġinstance": 1308,
      "Ġamong": 1309,
      "ĠOn": 1310,
      "Ġcaus": 1311,
      "Ġadm": 1312,
      "Ġadv": 1313,
      "Ġvirtue": 1314,
      "Ġreading": 1315,
      "Ġwritings": 1316,
      "Ġcondition": 1317,
      "Ġconditions": 1318,
      "Ġsuffering": 1319,
      "Ġhistory": 1320,
      "Ġextent": 1321,
      "Ġsociety": 1322,
      "Ġstupid": 1323,
      "Ġculture": 1324,
      "Ġeyes": 1325,
      "Ġuntil": 1326,
      "Ġdoctrine": 1327,
      "!'": 1328,
      "19": 1329,
      "?'": 1330,
      "How": 1331,
      "aut": 1332,
      "com": 1333,
      "cce": 1334,
      "de": 1335,
      "ft": 1336,
      "ix": 1337,
      "ires": 1338,
      "like": 1339,
      "sess": 1340,
      "vol": 1341,
      "Ġturn": 1342,
      "ines": 1343,
      "Ġsc": 1344,
      "Ġsm": 1345,
      "Ġshe": 1346,
      "Ġsil": 1347,
      "ither": 1348,
      "atural": 1349,
      "ened": 1350,
      "Ġpar": 1351,
      "Ġpath": 1352,
      "Ġtoget": 1353,
      "edom": 1354,
      "stood": 1355,
      "arily": 1356,
      "Ġeffect": 1357,
      "omo": 1358,
      "omen": 1359,
      "oman": 1360,
      "openh": 1361,
      "verse": 1362,
      "ols": 1363,
      "Ġ17": 1364,
      "Ġexist": 1365,
      "Ġallow": 1366,
      "Ġdem": 1367,
      "Ġnecess": 1368,
      "Ġseen": 1369,
      "Ġyoung": 1370,
      "Ġmeant": 1371,
      "ĠPublishes": 1372,
      "Ġprocess": 1373,
      "Ġfear": 1374,
      "aug": 1375,
      "unity": 1376,
      "Ġothers": 1377,
      "ĠHe": 1378,
      "ĠHuman": 1379,
      "Ġgenuine": 1380,
      "ference": 1381,
      "Ġdesp": 1382,
      "ably": 1383,
      "Ġideal": 1384,
      "Ġclearly": 1385,
      "Ġbetter": 1386,
      "Ġherd": 1387,
      "Ġhonor": 1388,
      "Ġcommand": 1389,
      "Ġfinally": 1390,
      "Ġopin": 1391,
      "Ġplace": 1392,
      "Ġmisunder": 1393,
      "velop": 1394,
      "cientific": 1395,
      "Ġconstant": 1396,
      "Ġpleasure": 1397,
      "Ġeasily": 1398,
      "Ġfundamental": 1399,
      "Ġtogether": 1400,
      "openhau": 1401,
      "ared": 1402,
      "fort": 1403,
      "ges": 1404,
      "hod": 1405,
      "hip": 1406,
      "ler": 1407,
      "lud": 1408,
      "mod": 1409,
      "ny": 1410,
      "ps": 1411,
      "pos": 1412,
      "ror": 1413,
      "rary": 1414,
      "uation": 1415,
      "Ġaction": 1416,
      "hest": 1417,
      "Ġsing": 1418,
      "Ġpur": 1419,
      "Ġpast": 1420,
      "Ġtop": 1421,
      "Ġfur": 1422,
      "Ġfun": 1423,
      "Ġmon": 1424,
      "Ġbl": 1425,
      "Ġdel": 1426,
      "Ġnor": 1427,
      "Ġrep": 1428,
      "ented": 1429,
      "ential": 1430,
      "Ġgiven": 1431,
      "ethe": 1432,
      "Ġanim": 1433,
      "Ġanother": 1434,
      "Ġstop": 1435,
      "Ġhaving": 1436,
      "ify": 1437,
      "Ġphys": 1438,
      "Ġcomple": 1439,
      "Ġtherefore": 1440,
      "Ġshame": 1441,
      "ĠPlat": 1442,
      "Ġanyone": 1443,
      "Ġused": 1444,
      "tern": 1445,
      "Ġchild": 1446,
      "ung": 1447,
      "Ġtyp": 1448,
      "Ġresult": 1449,
      "Ġamount": 1450,
      "Ġpersonal": 1451,
      "Ġpossess": 1452,
      "ĠRe": 1453,
      "Ġdiffic": 1454,
      "Ġclose": 1455,
      "ruel": 1456,
      "Ġrights": 1457,
      "Ġspeci": 1458,
      "ĠâĢĺ": 1459,
      "Ġyourself": 1460,
      "Ġsenses": 1461,
      "Ġregard": 1462,
      "rench": 1463,
      "Ġfollow": 1464,
      "Ġprinciple": 1465,
      "Ġexample": 1466,
      "ĠSchopenhau": 1467,
      "Ġcourse": 1468,
      "Ġdifficult": 1469,
      "For": 1470,
      "II": 1471,
      "air": 1472,
      "go": 1473,
      "ging": 1474,
      "iar": 1475,
      "jud": 1476,
      "ob": 1477,
      "ole": 1478,
      "ruth": 1479,
      "sion": 1480,
      "ti": 1481,
      "uous": 1482,
      "vious": 1483,
      "Ġtem": 1484,
      "Ġtask": 1485,
      "het": 1486,
      "ises": 1487,
      "ised": 1488,
      "Ġsat": 1489,
      "Ġscientific": 1490,
      "Ġwrong": 1491,
      "ery": 1492,
      "erhaps": 1493,
      "Ġ\")": 1494,
      "ening": 1495,
      "Ġpra": 1496,
      "Ġhal": 1497,
      "Ġhold": 1498,
      "Ġma": 1499,
      "Ġmal": 1500,
      "Ġmention": 1501,
      "Ġdra": 1502,
      "Ġdown": 1503,
      "icate": 1504,
      "Ġnum": 1505,
      "Ġlate": 1506,
      "Ġlive": 1507,
      "Ġliving": 1508,
      "uture": 1509,
      "imin": 1510,
      "Ġaspect": 1511,
      "Ġancient": 1512,
      "urd": 1513,
      "uring": 1514,
      "osity": 1515,
      "Ġwithin": 1516,
      "Ġsus": 1517,
      "Ġpride": 1518,
      "Ġprodu": 1519,
      "Ġvanity": 1520,
      "Ġdep": 1521,
      "Ġdeal": 1522,
      "Ġneg": 1523,
      "ĠEcce": 1524,
      "ĠBer": 1525,
      "Ġfront": 1526,
      "Ġevent": 1527,
      "Ġlevel": 1528,
      "Ġaround": 1529,
      "ĠSt": 1530,
      "Ġpred": 1531,
      "Ġknows": 1532,
      "ĠHomo": 1533,
      "Ġbecom": 1534,
      "Ġgenius": 1535,
      "Ġtend": 1536,
      "Ġhighest": 1537,
      "Ġcontra": 1538,
      "Ġadd": 1539,
      "Ġaccount": 1540,
      "Ġentire": 1541,
      "Ġspeak": 1542,
      "Ġcertainly": 1543,
      "Ġdrives": 1544,
      "Ġviews": 1545,
      "Ġmethod": 1546,
      "Ġhistor": 1547,
      "Ġpsycholog": 1548,
      "ocratic": 1549,
      "Ġscholars": 1550,
      "Ġplay": 1551,
      "Ġconcern": 1552,
      "Ġbegin": 1553,
      "Ġinterpretation": 1554,
      "Ġearth": 1555,
      "Ġdeterm": 1556,
      "ourage": 1557,
      "ĠGreek": 1558,
      "Ġapproach": 1559,
      "Ġhidden": 1560,
      "Ġmedioc": 1561,
      "Ġultimately": 1562,
      "Ġslave": 1563,
      "aphys": 1564,
      "ave": 1565,
      "be": 1566,
      "con": 1567,
      "cul": 1568,
      "cause": 1569,
      "for": 1570,
      "mp": 1571,
      "oethe": 1572,
      "ry": 1573,
      "rust": 1574,
      "unt": 1575,
      "what": 1576,
      "ysi": 1577,
      "Ġi": 1578,
      "Ġaff": 1579,
      "Ġsit": 1580,
      "erful": 1581,
      "Ġperi": 1582,
      "Ġpubl": 1583,
      "Ġcame": 1584,
      "Ġcount": 1585,
      "Ġcruel": 1586,
      "Ġfuture": 1587,
      "Ġhars": 1588,
      "Ġbre": 1589,
      "Ġbit": 1590,
      "Ġthough": 1591,
      "Ġthree": 1592,
      "Ġdone": 1593,
      "Ġdire": 1594,
      "ari": 1595,
      "arks": 1596,
      "Ġnorm": 1597,
      "Ġbeaut": 1598,
      "ctive": 1599,
      "iment": 1600,
      "Ġforget": 1601,
      "irth": 1602,
      "Ġcontain": 1603,
      "ellect": 1604,
      "These": 1605,
      "peci": 1606,
      "ĠGoethe": 1607,
      "Ġproud": 1608,
      "mann": 1609,
      "atever": 1610,
      "que": 1611,
      "Ġris": 1612,
      "Ġdef": 1613,
      "ĠEvery": 1614,
      "Ġdoing": 1615,
      "ures": 1616,
      "Ġintellect": 1617,
      "Ġleft": 1618,
      "ogn": 1619,
      "ĠWhen": 1620,
      "Ġshow": 1621,
      "Ġargu": 1622,
      "ĠAll": 1623,
      "Ġeveryone": 1624,
      "Ġprejud": 1625,
      "ĠGermany": 1626,
      "acr": 1627,
      "Ġspirits": 1628,
      "Ġtyr": 1629,
      "ulti": 1630,
      "Ġ20": 1631,
      "ĠFrench": 1632,
      "ĠOr": 1633,
      "Ġfeelings": 1634,
      "ĠTo": 1635,
      "Ġaccording": 1636,
      "Ġclass": 1637,
      "ĠEuropean": 1638,
      "Ġentr": 1639,
      "Ġobject": 1640,
      "iction": 1641,
      "Ġattempt": 1642,
      "Ġrefined": 1643,
      "Ġinvol": 1644,
      "Ġhappens": 1645,
      "Ġexperiences": 1646,
      "Ġmetaphys": 1647,
      "Ġliter": 1648,
      "Ġproblems": 1649,
      "Ġgets": 1650,
      "ugg": 1651,
      "Ġcentury": 1652,
      "Ġparticular": 1653,
      "Ġappearance": 1654,
      "Ġfriends": 1655,
      "Ġhyp": 1656,
      "Ġsingle": 1657,
      "Ġtopics": 1658,
      "ĠSchopenhauer": 1659,
      "ĠBerlin": 1660,
      "Ġmediocre": 1661,
      "Ġperiod": 1662,
      "23": 1663,
      "25": 1664,
      "27": 1665,
      "Even": 1666,
      "So": 1667,
      "To": 1668,
      "With": 1669,
      "Why": 1670,
      "You": 1671,
      "az": 1672,
      "aus": 1673,
      "aust": 1674,
      "cu": 1675,
      "face": 1676,
      "ially": 1677,
      "ivers": 1678,
      "lic": 1679,
      "mat": 1680,
      "ne": 1681,
      "row": 1682,
      "su": 1683,
      "sue": 1684,
      "ted": 1685,
      "way": 1686,
      "Ġkn": 1687,
      "Ġvers": 1688,
      "Ġxx": 1689,
      "Ġtre": 1690,
      "Ġter": 1691,
      "Ġtreat": 1692,
      "Ġtell": 1693,
      "Ġtimes": 1694,
      "Ġaffect": 1695,
      "ret": 1696,
      "ream": 1697,
      "Ġwa": 1698,
      "Ġche": 1699,
      "Ġcol": 1700,
      "Ġcap": 1701,
      "Ġcases": 1702,
      "Ġful": 1703,
      "Ġfals": 1704,
      "Ġhate": 1705,
      "Ġmain": 1706,
      "Ġmem": 1707,
      "Ġmere": 1708,
      "orough": 1709,
      "Ġbase": 1710,
      "Ġthorough": 1711,
      "ingly": 1712,
      "alth": 1713,
      "Ġinn": 1714,
      "Ġden": 1715,
      "Ġdream": 1716,
      "lem": 1717,
      "Ġep": 1718,
      "Ġnatural": 1719,
      "Ġlist": 1720,
      "Ġlang": 1721,
      "Ġlaug": 1722,
      "uted": 1723,
      "ims": 1724,
      "Ġask": 1725,
      "Ġhear": 1726,
      "igra": 1727,
      "Ġstud": 1728,
      "idd": 1729,
      "idence": 1730,
      "ulsion": 1731,
      "Ġsuper": 1732,
      "Ġprim": 1733,
      "Ġpriv": 1734,
      "ads": 1735,
      "ests": 1736,
      "quire": 1737,
      "Ġdevelop": 1738,
      "Ġneigh": 1739,
      "ĠEp": 1740,
      "ivid": 1741,
      "Ġdog": 1742,
      "ights": 1743,
      "ĠNo": 1744,
      "Ġfav": 1745,
      "Ġarist": 1746,
      "ored": 1747,
      "Ġknown": 1748,
      "Ġenj": 1749,
      "Ġimag": 1750,
      "ĠMoral": 1751,
      "ried": 1752,
      "Ġtruths": 1753,
      "ĠOur": 1754,
      "Ġpossi": 1755,
      "Ġrace": 1756,
      "ability": 1757,
      "Ġobs": 1758,
      "Ġpowerful": 1759,
      "Ġinclud": 1760,
      "Ġinsp": 1761,
      "Ġquestions": 1762,
      "Ġreligious": 1763,
      "arent": 1764,
      "Ġmodest": 1765,
      "Ġcalls": 1766,
      "Ġconstit": 1767,
      "Ġforeground": 1768,
      "Ġmatter": 1769,
      "Ġmeaning": 1770,
      "Ġexplan": 1771,
      "Ġscholar": 1772,
      "Ġdegree": 1773,
      "ĠFrance": 1774,
      "Ġkind": 1775,
      "Ġconsequ": 1776,
      "Ġindepend": 1777,
      "Ġskepticism": 1778,
      "Ġequal": 1779,
      "Ġdecisive": 1780,
      "Ġmisunderstand": 1781,
      "modern": 1782,
      "Ġanimal": 1783,
      "Ġcomplete": 1784,
      "ĠPlato": 1785,
      "Ġspecies": 1786,
      "Ġhalf": 1787,
      "Ġpublic": 1788,
      "Ġharsh": 1789,
      "Ġrisk": 1790,
      "iversity": 1791,
      "Ġlangu": 1792,
      "24": 1793,
      "As": 1794,
      "Now": 1795,
      "Nietzsche": 1796,
      "People": 1797,
      "When": 1798,
      "ape": 1799,
      "abl": 1800,
      "bably": 1801,
      "crib": 1802,
      "dden": 1803,
      "ead": 1804,
      "form": 1805,
      "ger": 1806,
      "ien": 1807,
      "iled": 1808,
      "lu": 1809,
      "lus": 1810,
      "land": 1811,
      "rom": 1812,
      "rich": 1813,
      "yn": 1814,
      "yr": 1815,
      "Ġtaken": 1816,
      "ina": 1817,
      "reas": 1818,
      "Ġsed": 1819,
      "Ġsacr": 1820,
      "ert": 1821,
      "erve": 1822,
      "ati": 1823,
      "ener": 1824,
      "eness": 1825,
      "Ġpolit": 1826,
      "Ġcause": 1827,
      "Ġcourage": 1828,
      "Ġfra": 1829,
      "Ġhund": 1830,
      "Ġharm": 1831,
      "Ġmind": 1832,
      "Ġmaking": 1833,
      "Ġmulti": 1834,
      "ork": 1835,
      "Ġbro": 1836,
      "Ġbody": 1837,
      "any": 1838,
      "Ġdon": 1839,
      "icious": 1840,
      "omp": 1841,
      "Ġbeyond": 1842,
      "Ġlies": 1843,
      "Ġlab": 1844,
      "Ġgain": 1845,
      "Ġnobility": 1846,
      "oples": 1847,
      "Ġfort": 1848,
      "Ġund": 1849,
      "igure": 1850,
      "Ġ-\"": 1851,
      "Ġsty": 1852,
      "Ġstep": 1853,
      "Ġhands": 1854,
      "osed": 1855,
      "ided": 1856,
      "ifies": 1857,
      "ifice": 1858,
      "ified": 1859,
      "elt": 1860,
      "Ġsug": 1861,
      "Ġsudden": 1862,
      "ĠGe": 1863,
      "ĠIf": 1864,
      "ths": 1865,
      "Ġ13": 1866,
      "Ġweak": 1867,
      "Ġexpect": 1868,
      "Ġwilling": 1869,
      "uss": 1870,
      "ichard": 1871,
      "ants": 1872,
      "ivity": 1873,
      "Ġye": 1874,
      "Ġworst": 1875,
      "ogra": 1876,
      "Ġmanner": 1877,
      "Ġdisgu": 1878,
      "Ġqual": 1879,
      "fulness": 1880,
      "Ġstrugg": 1881,
      "Ġresist": 1882,
      "Ġunderstood": 1883,
      "Ġgrou": 1884,
      "Ġvalu": 1885,
      "Ġsouls": 1886,
      "actes": 1887,
      "Ġenth": 1888,
      "plic": 1889,
      "ĠVers": 1890,
      "Ġlooking": 1891,
      "Ġclear": 1892,
      "Ġreasons": 1893,
      "Ġgenerally": 1894,
      "Ġremark": 1895,
      "Ġscho": 1896,
      "ĠKant": 1897,
      "Ġstrongest": 1898,
      "Ġopen": 1899,
      "ĠJew": 1900,
      "Ġsecret": 1901,
      "Ġcompulsion": 1902,
      "ervation": 1903,
      "Ġsocial": 1904,
      "ublished": 1905,
      "Ġeye": 1906,
      "Ġrecogn": 1907,
      "Ġbelongs": 1908,
      "Ġsurpr": 1909,
      "Ġkeeps": 1910,
      "Ġfrequently": 1911,
      "Ġfreedom": 1912,
      "Ġdegener": 1913,
      "Ġopposite": 1914,
      "gedy": 1915,
      "Ġ188": 1916,
      "Ġespeci": 1917,
      "Ġrule": 1918,
      "Ġjudgment": 1919,
      "Ġconsequently": 1920,
      "Ġproper": 1921,
      "Ġimmedi": 1922,
      "Because": 1923,
      "ached": 1924,
      "ĠUn": 1925,
      "Ġnamely": 1926,
      "Ġmaster": 1927,
      "Ġfurther": 1928,
      "ternal": 1929,
      "Ġtempo": 1930,
      "Ġsuspic": 1931,
      "Ġbeginning": 1932,
      "Ġcruelty": 1933,
      "Ġcontains": 1934,
      "Ġarguments": 1935,
      "Ġmemory": 1936,
      "igrams": 1937,
      "ĠEpigrams": 1938,
      "Ġfavor": 1939,
      "Ġharshness": 1940,
      "Ġlanguage": 1941,
      "Ġhundred": 1942,
      "Ġespecially": 1943,
      "Every": 1944,
      "German": 1945,
      "His": 1946,
      "Not": 1947,
      "Perhaps": 1948,
      "ex": 1949,
      "ext": 1950,
      "free": 1951,
      "hor": 1952,
      "ib": 1953,
      "iogra": 1954,
      "nect": 1955,
      "nature": 1956,
      "ook": 1957,
      "pirit": 1958,
      "peri": 1959,
      "rt": 1960,
      "ron": 1961,
      "rop": 1962,
      "sw": 1963,
      "yter": 1964,
      "Ġid": 1965,
      "Ġtakes": 1966,
      "Ġtempt": 1967,
      "hel": 1968,
      "Ġocc": 1969,
      "ison": 1970,
      "Ġsound": 1971,
      "Ġsays": 1972,
      "Ġserv": 1973,
      "Ġwar": 1974,
      "Ġwond": 1975,
      "iter": 1976,
      "itive": 1977,
      "ency": 1978,
      "Ġpop": 1979,
      "Ġphen": 1980,
      "Ġpract": 1981,
      "Ġpublished": 1982,
      "Ġcre": 1983,
      "Ġcur": 1984,
      "Ġfl": 1985,
      "Ġfelt": 1986,
      "Ġhor": 1987,
      "Ġmas": 1988,
      "Ġmask": 1989,
      "Ġbor": 1990,
      "Ġbra": 1991,
      "Ġdue": 1992,
      "lev": 1993,
      "edited": 1994,
      "arge": 1995,
      "Ġissue": 1996,
      "ilar": 1997,
      "Ġbeh": 1998,
      "Ġlim": 1999,
      "Ġline": 2000,
      "asant": 2001,
      "Ġreach": 2002,
      "entially": 2003,
      "Ġwhatever": 2004,
      "Ġnobody": 2005,
      "Ġheard": 2006,
      "Ġhealth": 2007,
      "Ġanti": 2008,
      "hers": 2009,
      "Ġconnect": 2010,
      "olute": 2011,
      "iful": 2012,
      "istem": 2013,
      "Ġsun": 2014,
      "ĠGru": 2015,
      "Ġvis": 2016,
      "Ġ11": 2017,
      "Ġexc": 2018,
      "usi": 2019,
      "Ġdece": 2020,
      "aint": 2021,
      "ival": 2022,
      "ivism": 2023,
      "Ġyet": 2024,
      "Ġphysi": 2025,
      "Ġsever": 2026,
      "ement": 2027,
      "Ġworth": 2028,
      "Ġled": 2029,
      "Ġsoon": 2030,
      "ott": 2031,
      "lag": 2032,
      "Ġface": 2033,
      "Ġprov": 2034,
      "Ġloves": 2035,
      "ĠSo": 2036,
      "erial": 2037,
      "Ġknowing": 2038,
      "Ġenc": 2039,
      "interest": 2040,
      "Ġsometimes": 2041,
      "Ġpost": 2042,
      "Ġstrange": 2043,
      "soci": 2044,
      "Ġgreater": 2045,
      "Ġneeded": 2046,
      "Ġground": 2047,
      "ĠRichard": 2048,
      "itional": 2049,
      "Ġcontext": 2050,
      "Ġfeels": 2051,
      "Ġartists": 2052,
      "Ġreaders": 2053,
      "Ġobvious": 2054,
      "Ġlonger": 2055,
      "Ġclever": 2056,
      "Ġactually": 2057,
      "188": 2058,
      "Ġbadly": 2059,
      "Ġthoughts": 2060,
      "Ġpresent": 2061,
      "ification": 2062,
      "Ġinstincts": 2063,
      "Ġwrite": 2064,
      "Ġhonest": 2065,
      "Ġcommunity": 2066,
      "Ġstronger": 2067,
      "Ġ199": 2068,
      "Ġinflu": 2069,
      "Ġassess": 2070,
      "Ġoffend": 2071,
      "Ġstandard": 2072,
      "Ġeasy": 2073,
      "Ġeduc": 2074,
      "Ġessence": 2075,
      "Ġessentially": 2076,
      "Ġbegins": 2077,
      "Ġlaw": 2078,
      "ĠFrom": 2079,
      "Ġtexts": 2080,
      "Ġesc": 2081,
      "Ġtalent": 2082,
      "Ġsimilar": 2083,
      "Ġmistrust": 2084,
      "Ġlearned": 2085,
      "Ġtranslation": 2086,
      "Ġutter": 2087,
      "Ġcritical": 2088,
      "aches": 2089,
      "Ġreveal": 2090,
      "Ġabsurd": 2091,
      "Ġestabl": 2092,
      "brid": 2093,
      "Ġfamous": 2094,
      "Ġinteresting": 2095,
      "coming": 2096,
      "Ġsmall": 2097,
      "Ġsilent": 2098,
      "Ġdemand": 2099,
      "Ġopinion": 2100,
      "Ġtypes": 2101,
      "Ġaspects": 2102,
      "Ġbecomes": 2103,
      "Ġpsychologist": 2104,
      "Ġbeautiful": 2105,
      "Ġtyran": 2106,
      "Ġhypot": 2107,
      "Ġwait": 2108,
      "Ġcheerful": 2109,
      "Ġmerely": 2110,
      "Ġthoroughly": 2111,
      "Ġepistem": 2112,
      "Ġneighbor": 2113,
      "ividual": 2114,
      "Ġenjoy": 2115,
      "Ġbroad": 2116,
      "Ġfortun": 2117,
      "Ġsugg": 2118,
      "Ġqualities": 2119,
      "Ġstruggle": 2120,
      "Ġimmediately": 2121,
      "Ġpopular": 2122,
      "Ġphenomen": 2123,
      "ĠGruyter": 2124,
      "':": 2125,
      "):": 2126,
      "21": 2127,
      "By": 2128,
      "Here": 2129,
      "Some": 2130,
      "XI": 2131,
      "ail": 2132,
      "cult": 2133,
      "cont": 2134,
      "ds": 2135,
      "ean": 2136,
      "equ": 2137,
      "gan": 2138,
      "gust": 2139,
      "how": 2140,
      "hilosop": 2141,
      "ih": 2142,
      "mer": 2143,
      "mend": 2144,
      "oly": 2145,
      "oke": 2146,
      "oot": 2147,
      "oint": 2148,
      "oved": 2149,
      "pon": 2150,
      "par": 2151,
      "pers": 2152,
      "ross": 2153,
      "ters": 2154,
      "uly": 2155,
      "Ġver": 2156,
      "Ġign": 2157,
      "Ġtaking": 2158,
      "inate": 2159,
      "ising": 2160,
      "ische": 2161,
      "Ġset": 2162,
      "Ġsol": 2163,
      "Ġsake": 2164,
      "Ġsolit": 2165,
      "erke": 2166,
      "erves": 2167,
      "erlag": 2168,
      "itar": 2169,
      "itude": 2170,
      "Ġ\"(": 2171,
      "Ġ\",": 2172,
      "Ġcir": 2173,
      "Ġtook": 2174,
      "Ġfat": 2175,
      "Ġfigure": 2176,
      "Ġbu": 2177,
      "Ġthreat": 2178,
      "ale": 2179,
      "Ġdate": 2180,
      "Ġdie": 2181,
      "lection": 2182,
      "icians": 2183,
      "Ġet": 2184,
      "Ġnam": 2185,
      "lying": 2186,
      "omet": 2187,
      "Ġlat": 2188,
      "Ġlarge": 2189,
      "Ġret": 2190,
      "Ġreven": 2191,
      "Ġreference": 2192,
      "oph": 2193,
      "Ġforg": 2194,
      "Ġforms": 2195,
      "Ġforced": 2196,
      "irm": 2197,
      "Ġalong": 2198,
      "Ġansw": 2199,
      "Ġstars": 2200,
      "Ġstory": 2201,
      "oses": 2202,
      "rad": 2203,
      "ularly": 2204,
      "Ġord": 2205,
      "Ġvar": 2206,
      "Ġvols": 2207,
      "amed": 2208,
      "quent": 2209,
      "Ġability": 2210,
      "Ġdepend": 2211,
      "ĠEpic": 2212,
      "ĠBirth": 2213,
      "ured": 2214,
      "Ġsex": 2215,
      "Ġeval": 2216,
      "Ġevents": 2217,
      "Ġevidence": 2218,
      "ĠNap": 2219,
      "Ġtruly": 2220,
      "Ġcompre": 2221,
      "ption": 2222,
      "orality": 2223,
      "ogress": 2224,
      "ĠWill": 2225,
      "Ġshows": 2226,
      "Ġfair": 2227,
      "Ġproject": 2228,
      "Ġprobably": 2229,
      "Ġusing": 2230,
      "ĠAn": 2231,
      "Ġlost": 2232,
      "Ġpret": 2233,
      "Ġquot": 2234,
      "Ġsomewhat": 2235,
      "Ġchur": 2236,
      "Ġlikely": 2237,
      "acity": 2238,
      "Its": 2239,
      "ccording": 2240,
      "ĠHor": 2241,
      "Ġconsist": 2242,
      "Ġpoet": 2243,
      "Ġoverc": 2244,
      "Ġ28": 2245,
      "ĠFor": 2246,
      "ĠFried": 2247,
      "Ġwanted": 2248,
      "uming": 2249,
      "ression": 2250,
      "ĠRoman": 2251,
      "izing": 2252,
      "ization": 2253,
      "Ġcontin": 2254,
      "Ġcontrary": 2255,
      "Ġdesire": 2256,
      "Ġindic": 2257,
      "Ġindividual": 2258,
      "Ġappre": 2259,
      "Ġapparent": 2260,
      "Ġ87": 2261,
      "Ġmyself": 2262,
      "ĠVerlag": 2263,
      "ĠLe": 2264,
      "ĠLet": 2265,
      "Ġlooks": 2266,
      "Ġclean": 2267,
      "Ġinsist": 2268,
      "Ġcharm": 2269,
      "ontin": 2270,
      "Ġconsidered": 2271,
      "Ġattract": 2272,
      "Ġremarks": 2273,
      "Ġsuffer": 2274,
      "Ġemer": 2275,
      "Ġemph": 2276,
      "Ġ198": 2277,
      "Ġrealm": 2278,
      "Ġreality": 2279,
      "Ġunderstanding": 2280,
      "Ġformul": 2281,
      "Ġstuck": 2282,
      "Ġhearts": 2283,
      "Ġtalk": 2284,
      "Ġseriously": 2285,
      "Ġtranslated": 2286,
      "Ġspirituality": 2287,
      "Ġrarely": 2288,
      "Ġillusion": 2289,
      "Ġindeed": 2290,
      "Ġrevere": 2291,
      "Ġstatesman": 2292,
      "Ġdeeply": 2293,
      "Ġexceptional": 2294,
      "ĠChristianity": 2295,
      "Ġfatherland": 2296,
      "Ġstupidity": 2297,
      "However": 2298,
      "Ġconstantly": 2299,
      "Ġmonstr": 2300,
      "Ġamounts": 2301,
      "oleon": 2302,
      "Ġnumber": 2303,
      "Ġdealing": 2304,
      "Ġcontrast": 2305,
      "Ġspeaks": 2306,
      "Ġsituation": 2307,
      "Ġdirect": 2308,
      "Ġnormal": 2309,
      "Ġliterature": 2310,
      "Ġknew": 2311,
      "Ġdogmat": 2312,
      "Ġaristocratic": 2313,
      "Ġsedu": 2314,
      "Ġstyle": 2315,
      "ĠJews": 2316,
      "Ġcreate": 2317,
      "Ġescape": 2318,
      "Ġutterly": 2319,
      "Ġhypothes": 2320,
      "Ġepistemological": 2321,
      "Ġnames": 2322,
      "Ġrevenge": 2323,
      "ĠNapoleon": 2324,
      "ĠFriedrich": 2325,
      "26": 2326,
      "45": 2327,
      "67": 2328,
      "Al": 2329,
      "At": 2330,
      "Coll": 2331,
      "Montin": 2332,
      "aul": 2333,
      "aive": 2334,
      "ares": 2335,
      "app": 2336,
      "bre": 2337,
      "bble": 2338,
      "bits": 2339,
      "co": 2340,
      "dom": 2341,
      "gab": 2342,
      "hist": 2343,
      "haust": 2344,
      "ique": 2345,
      "liness": 2346,
      "lier": 2347,
      "more": 2348,
      "nces": 2349,
      "new": 2350,
      "oid": 2351,
      "oble": 2352,
      "ply": 2353,
      "pro": 2354,
      "rol": 2355,
      "spirit": 2356,
      "upp": 2357,
      "val": 2358,
      "yed": 2359,
      "Ġ:": 2360,
      "Ġ?": 2361,
      "Ġz": 2362,
      "Ġir": 2363,
      "ination": 2364,
      "isf": 2365,
      "Ġsk": 2366,
      "Ġsick": 2367,
      "Ġsaint": 2368,
      "Ġwit": 2369,
      "Ġways": 2370,
      "atory": 2371,
      "enn": 2372,
      "Ġpp": 2373,
      "Ġpess": 2374,
      "Ġcra": 2375,
      "Ġtot": 2376,
      "Ġtouch": 2377,
      "Ġtoler": 2378,
      "Ġfal": 2379,
      "Ġfil": 2380,
      "Ġfate": 2381,
      "Ġfem": 2382,
      "Ġfour": 2383,
      "Ġmer": 2384,
      "Ġmom": 2385,
      "Ġmag": 2386,
      "Ġmass": 2387,
      "Ġmix": 2388,
      "ories": 2389,
      "Ġble": 2390,
      "Ġbar": 2391,
      "Ġbus": 2392,
      "Ġbold": 2393,
      "Ġbott": 2394,
      "Ġthus": 2395,
      "Ġthirst": 2396,
      "alian": 2397,
      "alys": 2398,
      "Ġdut": 2399,
      "Ġdig": 2400,
      "Ġdiv": 2401,
      "edy": 2402,
      "eding": 2403,
      "Ġeither": 2404,
      "Ġego": 2405,
      "iliar": 2406,
      "see": 2407,
      "Ġlu": 2408,
      "Ġlie": 2409,
      "vement": 2410,
      "Ġrest": 2411,
      "Ġreverse": 2412,
      "Ġrequire": 2413,
      "enth": 2414,
      "entle": 2415,
      "entally": 2416,
      "entions": 2417,
      "Ġge": 2418,
      "Ġgentle": 2419,
      "utious": 2420,
      "Ġheav": 2421,
      "Ġalthough": 2422,
      "Ġ-)\"": 2423,
      "chie": 2424,
      "Ġhabits": 2425,
      "osition": 2426,
      "ider": 2427,
      "Ġnotes": 2428,
      "ift": 2429,
      "rase": 2430,
      "Ġmother": 2431,
      "âĢĶ": 2432,
      "Ġsum": 2433,
      "Ġsubl": 2434,
      "Ġsuperi": 2435,
      "Ġ('": 2436,
      "Ġ(Â§": 2437,
      "ational": 2438,
      "Ġprom": 2439,
      "Ġprot": 2440,
      "think": 2441,
      "adly": 2442,
      "estined": 2443,
      "ambrid": 2444,
      "cipl": 2445,
      "Ġabund": 2446,
      "Ġrul": 2447,
      "Ġrun": 2448,
      "Ġneither": 2449,
      "Ġphil": 2450,
      "Ġphilos": 2451,
      "Ġphrase": 2452,
      "Ġsepar": 2453,
      "asts": 2454,
      "iety": 2455,
      "Ġsolem": 2456,
      "Ġspread": 2457,
      "ĠPr": 2458,
      "ĠPro": 2459,
      "ĠPeople": 2460,
      "ĠPhilosop": 2461,
      "ĠPaul": 2462,
      "Ġfacult": 2463,
      "Ġarbit": 2464,
      "Ġeverywhere": 2465,
      "Ġdise": 2466,
      "Ġdispos": 2467,
      "Ġdisgust": 2468,
      "Ġdiscipl": 2469,
      "ĠSe": 2470,
      "auf": 2471,
      "Ġsomebody": 2472,
      "Ġsomehow": 2473,
      "eriz": 2474,
      "acy": 2475,
      "Ġexper": 2476,
      "inte": 2477,
      "Ġbecame": 2478,
      "sia": 2479,
      "Ġgoodwill": 2480,
      "Ġimage": 2481,
      "ension": 2482,
      "Ġstrik": 2483,
      "ages": 2484,
      "ritische": 2485,
      "Ġ25": 2486,
      "Ġwanting": 2487,
      "Ġgreatness": 2488,
      "rible": 2489,
      "Ġinstead": 2490,
      "Ġthinks": 2491,
      "Ġcare": 2492,
      "Ġcautious": 2493,
      "Ġraces": 2494,
      "Ġrabble": 2495,
      "Ġrelated": 2496,
      "Ġrelations": 2497,
      "Ġsaying": 2498,
      "Ġcontem": 2499,
      "Ġdesires": 2500,
      "Ġbelieves": 2501,
      "undity": 2502,
      "ĠDe": 2503,
      "ĠDion": 2504,
      "ĠTra": 2505,
      "Ġaccess": 2506,
      "Ġartistic": 2507,
      "Ġclos": 2508,
      "Ġhumans": 2509,
      "Ġmyst": 2510,
      "Ġmyth": 2511,
      "Ġpoints": 2512,
      "ictions": 2513,
      "Ġinclin": 2514,
      "Ġincreas": 2515,
      "Ġimport": 2516,
      "ended": 2517,
      "Ġpresupp": 2518,
      "Ġinstinctively": 2519,
      "Ġdangers": 2520,
      "Ġattrib": 2521,
      "Ġgoing": 2522,
      "Ġopport": 2523,
      "Ġhonors": 2524,
      "Ġhonored": 2525,
      "Ġremain": 2526,
      "Ġprofundity": 2527,
      "Ġcommon": 2528,
      "ĠKritische": 2529,
      "Ġfinal": 2530,
      "Ġdistinct": 2531,
      "Ġhappened": 2532,
      "Ġdrive": 2533,
      "Ġplaces": 2534,
      "Ġseeing": 2535,
      "Ġdiscove": 2536,
      "Ġcrude": 2537,
      "Ġconception": 2538,
      "Ġacknow": 2539,
      "Ġacross": 2540,
      "Ġpsychology": 2541,
      "Ġforeign": 2542,
      "Ġmaterial": 2543,
      "Ġhardly": 2544,
      "One": 2545,
      "Ġedition": 2546,
      "Ġconsideration": 2547,
      "Ġconsiderable": 2548,
      "atively": 2549,
      "Ġbasis": 2550,
      "Ġbased": 2551,
      "Ġbackground": 2552,
      "Ġsym": 2553,
      "Ġsynt": 2554,
      "Ġsigns": 2555,
      "Ġseriousness": 2556,
      "Ġpassion": 2557,
      "Ġfollows": 2558,
      "Ġtrying": 2559,
      "Ġjudgments": 2560,
      "Ġexpression": 2561,
      "Ġparticularly": 2562,
      "ĠYes": 2563,
      "ĠYou": 2564,
      "Ġgods": 2565,
      "Ġerror": 2566,
      "Ġdominant": 2567,
      "Ġgrowth": 2568,
      "Ġpainful": 2569,
      "Ġconceal": 2570,
      "Ġperspective": 2571,
      "Ġperspectivism": 2572,
      "Ġdestro": 2573,
      "volution": 2574,
      "Ġexistence": 2575,
      "Ġopinions": 2576,
      "ĠRevolution": 2577,
      "Ġclosely": 2578,
      "hetic": 2579,
      "Ġsatisf": 2580,
      "Ġpraise": 2581,
      "Ġmalicious": 2582,
      "Ġpredestined": 2583,
      "Ġtendency": 2584,
      "Ġhistorical": 2585,
      "mpat": 2586,
      "Ġintellectual": 2587,
      "Ġprejudice": 2588,
      "ĠToo": 2589,
      "Ġinvolunt": 2590,
      "ausgab": 2591,
      "Ġfull": 2592,
      "Ġasked": 2593,
      "iddle": 2594,
      "Ġimagine": 2595,
      "Ġincluding": 2596,
      "Ġinspire": 2597,
      "Ġexplanation": 2598,
      "Ġconsequences": 2599,
      "Ġindependent": 2600,
      "Ġsacrifice": 2601,
      "atience": 2602,
      "Ġsuddenly": 2603,
      "Ġyears": 2604,
      "Ġenthusi": 2605,
      "Ġremarkable": 2606,
      "Ġschool": 2607,
      "ĠUniversity": 2608,
      "iograph": 2609,
      "helm": 2610,
      "Ġbehind": 2611,
      "interested": 2612,
      "Ġinfluence": 2613,
      "Ġassessment": 2614,
      "Ġoffends": 2615,
      "Ġeducation": 2616,
      "Ġbroader": 2617,
      "Ġcirc": 2618,
      "Ġchurch": 2619,
      "Ġemphas": 2620,
      "Colli": 2621,
      "Montinari": 2622,
      "Ġpessim": 2623,
      "Ġfalse": 2624,
      "Ġbottom": 2625,
      "alysis": 2626,
      "ambridge": 2627,
      "Ġsolemn": 2628,
      "Ġfaculty": 2629,
      "Ġarbitrary": 2630,
      "ausgabe": 2631,
      "')": 2632,
      ");": 2633,
      "00": 2634,
      "65": 2635,
      "66": 2636,
      "70": 2637,
      "72": 2638,
      "73": 2639,
      "90": 2640,
      "According": 2641,
      "Con": 2642,
      "From": 2643,
      "Let": 2644,
      "My": 2645,
      "No": 2646,
      "Of": 2647,
      "SA": 2648,
      "bing": 2649,
      "bad": 2650,
      "called": 2651,
      "du": 2652,
      "dis": 2653,
      "eenth": 2654,
      "fr": 2655,
      "fect": 2656,
      "father": 2657,
      "human": 2658,
      "hamed": 2659,
      "ient": 2660,
      "ios": 2661,
      "ium": 2662,
      "iosity": 2663,
      "jor": 2664,
      "ling": 2665,
      "light": 2666,
      "mit": 2667,
      "mon": 2668,
      "matic": 2669,
      "now": 2670,
      "of": 2671,
      "pin": 2672,
      "por": 2673,
      "pond": 2674,
      "rs": 2675,
      "ries": 2676,
      "ront": 2677,
      "rimin": 2678,
      "since": 2679,
      "tempt": 2680,
      "truth": 2681,
      "uit": 2682,
      "vii": 2683,
      "wise": 2684,
      "woman": 2685,
      "Ġ*": 2686,
      "Ġx": 2687,
      "Ġ{": 2688,
      "ĠâĢĻ": 2689,
      "Ġtest": 2690,
      "Ġtable": 2691,
      "Ġav": 2692,
      "Ġastr": 2693,
      "Ġaims": 2694,
      "hed": 2695,
      "hend": 2696,
      "inc": 2697,
      "inity": 2698,
      "inction": 2699,
      "inary": 2700,
      "Ġod": 2701,
      "Ġobl": 2702,
      "Ġtheory": 2703,
      "rect": 2704,
      "reedom": 2705,
      "isy": 2706,
      "ishing": 2707,
      "Ġson": 2708,
      "Ġsist": 2709,
      "Ġsich": 2710,
      "Ġsight": 2711,
      "Ġwound": 2712,
      "Ġwild": 2713,
      "itan": 2714,
      "itle": 2715,
      "itation": 2716,
      "onal": 2717,
      "Ġpet": 2718,
      "Ġpot": 2719,
      "Ġpour": 2720,
      "Ġpict": 2721,
      "Ġce": 2722,
      "Ġco": 2723,
      "Ġcop": 2724,
      "Ġtor": 2725,
      "Ġfall": 2726,
      "Ġhide": 2727,
      "Ġhum": 2728,
      "Ġhome": 2729,
      "Ġmin": 2730,
      "oric": 2731,
      "Ġbow": 2732,
      "Ġbour": 2733,
      "Ġbene": 2734,
      "Ġthir": 2735,
      "oun": 2736,
      "Ġdi": 2737,
      "Ġdom": 2738,
      "Ġdance": 2739,
      "Ġduring": 2740,
      "icht": 2741,
      "aring": 2742,
      "arrow": 2743,
      "Ġecon": 2744,
      "Ġeternal": 2745,
      "Ġelev": 2746,
      "Ġnone": 2747,
      "Ġnaive": 2748,
      "Ġnarrow": 2749,
      "omy": 2750,
      "ilitar": 2751,
      "set": 2752,
      "Ġli": 2753,
      "Ġlog": 2754,
      "Ġlik": 2755,
      "vere": 2756,
      "ash": 2757,
      "cell": 2758,
      "Ġrevol": 2759,
      "Ġgiving": 2760,
      "utes": 2761,
      "eter": 2762,
      "eterm": 2763,
      "Ġassoci": 2764,
      "Ġashamed": 2765,
      "Ġalive": 2766,
      "Ġanalysis": 2767,
      "Ġstance": 2768,
      "iden": 2769,
      "ides": 2770,
      "idity": 2771,
      "olt": 2772,
      "elig": 2773,
      "Ġmot": 2774,
      "Ġorgan": 2775,
      "Their": 2776,
      "ĠII": 2777,
      "Ġvo": 2778,
      "Ġvon": 2779,
      "Ġvul": 2780,
      "Ġvice": 2781,
      "Ġexer": 2782,
      "Ġexag": 2783,
      "Ġexhaust": 2784,
      "Ġwills": 2785,
      "ateful": 2786,
      "using": 2787,
      "used": 2788,
      "usions": 2789,
      "ously": 2790,
      "cip": 2791,
      "Ġnext": 2792,
      "antly": 2793,
      "ĠBas": 2794,
      "geo": 2795,
      "Ġpeoples": 2796,
      "Ġdoor": 2797,
      "Ġdocu": 2798,
      "ches": 2799,
      "Ġsees": 2800,
      "Ġfright": 2801,
      "Ġyouth": 2802,
      "Ġintention": 2803,
      "astr": 2804,
      "Ġcomfort": 2805,
      "ptom": 2806,
      "onditional": 2807,
      "Ġwors": 2808,
      "Ġjoy": 2809,
      "Ġleg": 2810,
      "Ġspell": 2811,
      "Ġspite": 2812,
      "ĠWho": 2813,
      "ĠWerke": 2814,
      "otten": 2815,
      "kness": 2816,
      "Thus": 2817,
      "ĠPress": 2818,
      "Ġmoralities": 2819,
      "Ġuses": 2820,
      "Ġusually": 2821,
      "ĠAt": 2822,
      "ĠSocr": 2823,
      "Ġfeature": 2824,
      "ection": 2825,
      "mented": 2826,
      "Ġpref": 2827,
      "Ġprep": 2828,
      "Ġquiet": 2829,
      "Ġquick": 2830,
      "Ġunf": 2831,
      "Ġunre": 2832,
      "Ġcha": 2833,
      "Ġchang": 2834,
      "Ġchange": 2835,
      "inded": 2836,
      "unish": 2837,
      "unately": 2838,
      "Ġenorm": 2839,
      "isms": 2840,
      "Ġjustice": 2841,
      "ĠHow": 2842,
      "Ġconsists": 2843,
      "ensch": 2844,
      "ensive": 2845,
      "Ġpoor": 2846,
      "Ġpoison": 2847,
      "Ġoverall": 2848,
      "Ġstrict": 2849,
      "Ġ22": 2850,
      "Ġ23": 2851,
      "Ġ24": 2852,
      "ĠMet": 2853,
      "bling": 2854,
      "Ġrespon": 2855,
      "ume": 2856,
      "ock": 2857,
      "Ġsubt": 2858,
      "Ġteach": 2859,
      "Ġtends": 2860,
      "Ġgrown": 2861,
      "Ġthinkers": 2862,
      "Ġcapt": 2863,
      "Ġdescrib": 2864,
      "Ġbelieved": 2865,
      "ruction": 2866,
      "ples": 2867,
      "Ġspee": 2868,
      "Ġobedi": 2869,
      "Ġidea": 2870,
      "Ġfinds": 2871,
      "Ġdifference": 2872,
      "Ġacts": 2873,
      "Ġsorts": 2874,
      "Ġinside": 2875,
      "Ġinsights": 2876,
      "Ġgenerations": 2877,
      "Ġclaims": 2878,
      "Ġaphor": 2879,
      "Ġgoes": 2880,
      "ĠKauf": 2881,
      "Ġfinery": 2882,
      "Ġinvented": 2883,
      "Ġdistur": 2884,
      "Ġdistance": 2885,
      "Ġhappy": 2886,
      "Ġemp": 2887,
      "Ġinfre": 2888,
      "Ġdiscover": 2889,
      "Ġdiscuss": 2890,
      "Ġconcepts": 2891,
      "Ġextre": 2892,
      "too": 2893,
      "Ġaccept": 2894,
      "Ġputting": 2895,
      "Ġpsychological": 2896,
      "Ġmatters": 2897,
      "Ġcharacteriz": 2898,
      "Ġstarted": 2899,
      "Ġexplic": 2900,
      "Ġappears": 2901,
      "Only": 2902,
      "Ġsurface": 2903,
      "Ġbrought": 2904,
      "Ġconcl": 2905,
      "Ġstatements": 2906,
      "ossary": 2907,
      "Ġopposed": 2908,
      "poch": 2909,
      "Ġsympat": 2910,
      "Ġunconditional": 2911,
      "Ġhighly": 2912,
      "Ġcharacteristic": 2913,
      "Ġsimply": 2914,
      "Ġgrand": 2915,
      "Ġsubjective": 2916,
      "ficial": 2917,
      "Ġutilitar": 2918,
      "Ġtraits": 2919,
      "Ġconfront": 2920,
      "Ġexpressed": 2921,
      "Ġcorru": 2922,
      "Ġcorrect": 2923,
      "Ġlacking": 2924,
      "Ġconviction": 2925,
      "Ġdominate": 2926,
      "Ġabsolute": 2927,
      "onscious": 2928,
      "Ġsupport": 2929,
      "Ġsupposed": 2930,
      "Ġfriend": 2931,
      "Ġslow": 2932,
      "Ġfamiliar": 2933,
      "Ġguess": 2934,
      "Ġfailure": 2935,
      "Ġarrog": 2936,
      "Ġcauses": 2937,
      "Ġadmit": 2938,
      "Ġadmire": 2939,
      "Ġallowed": 2940,
      "Ġnecessity": 2941,
      "Ġfunction": 2942,
      "Ġdelight": 2943,
      "Ġrepres": 2944,
      "ifying": 2945,
      "Ġchildren": 2946,
      "Ġresults": 2947,
      "Ġpossession": 2948,
      "object": 2949,
      "Ġmajor": 2950,
      "Ġdraw": 2951,
      "Ġdepth": 2952,
      "Ġeventually": 2953,
      "Ġaddress": 2954,
      "Ġhistorian": 2955,
      "Ġapproaching": 2956,
      "Ġprejudices": 2957,
      "Ġobjective": 2958,
      "Ġmetaphysical": 2959,
      "Ġtremend": 2960,
      "Ġcapacity": 2961,
      "Ġinnoc": 2962,
      "Ġdreams": 2963,
      "Ġlisten": 2964,
      "Ġstudy": 2965,
      "Ġsuperficial": 2966,
      "Ġprimarily": 2967,
      "Ġprivate": 2968,
      "Ġprivile": 2969,
      "Ġdevelopment": 2970,
      "Ġcompletely": 2971,
      "Ġharmful": 2972,
      "Ġmultiple": 2973,
      "Ġexpected": 2974,
      "Ġgroups": 2975,
      "plicity": 2976,
      "ĠVersuch": 2977,
      "Ġcuriosity": 2978,
      "Ġbrave": 2979,
      "Ġconnected": 2980,
      "Ġstandards": 2981,
      "Ġdemanded": 2982,
      "Ġtyranny": 2983,
      "Ġsuggests": 2984,
      "perspect": 2985,
      "Ġignoble": 2986,
      "Ġsolitude": 2987,
      "Ġforgotten": 2988,
      "Ġovercome": 2989,
      "Ġattractive": 2990,
      "Ġreverence": 2991,
      "Ġfilth": 2992,
      "Ġmoments": 2993,
      "Ġmasses": 2994,
      "Ġbarbar": 2995,
      "Ġdivine": 2996,
      "Ġheavy": 2997,
      "Ġsublime": 2998,
      "Ġsuperior": 2999,
      "Ġphiloso": 3000,
      "Ġdiscipline": 3001,
      "ĠTragedy": 3002,
      "Ġimportant": 3003,
      "Ġopportunity": 3004,
      "Ġdistinctive": 3005,
      "Ġsymptom": 3006,
      "Ġdestroyed": 3007,
      "riminating": 3008,
      "Ġpetty": 3009,
      "Ġbourgeo": 3010,
      "Ġthird": 3011,
      "Ġexagger": 3012,
      "Ġenormous": 3013,
      "Ġtremendous": 3014,
      "',": 3015,
      "11": 3016,
      "20": 3017,
      "22": 3018,
      "28": 3019,
      "39": 3020,
      "43": 3021,
      "54": 3022,
      "?\"": 3023,
      "An": 3024,
      "Any": 3025,
      "En": 3026,
      "Or": 3027,
      "Peter": 3028,
      "St": 3029,
      "XV": 3030,
      "ax": 3031,
      "aire": 3032,
      "ailed": 3033,
      "bs": 3034,
      "bur": 3035,
      "bid": 3036,
      "bers": 3037,
      "bition": 3038,
      "cr": 3039,
      "cher": 3040,
      "cart": 3041,
      "cific": 3042,
      "eal": 3043,
      "even": 3044,
      "effect": 3045,
      "eoples": 3046,
      "find": 3047,
      "ften": 3048,
      "freedom": 3049,
      "gy": 3050,
      "gar": 3051,
      "gel": 3052,
      "hr": 3053,
      "ior": 3054,
      "iest": 3055,
      "iate": 3056,
      "just": 3057,
      "look": 3058,
      "liter": 3059,
      "men": 3060,
      "miss": 3061,
      "ned": 3062,
      "norm": 3063,
      "ov": 3064,
      "ox": 3065,
      "oz": 3066,
      "oth": 3067,
      "rass": 3068,
      "sing": 3069,
      "say": 3070,
      "science": 3071,
      "tological": 3072,
      "uct": 3073,
      "uge": 3074,
      "vous": 3075,
      "vag": 3076,
      "wh": 3077,
      "with": 3078,
      "whelm": 3079,
      "ying": 3080,
      "Ġ;": 3081,
      "Ġ[": 3082,
      "Ġ)\"": 3083,
      "Ġlying": 3084,
      "Ġten": 3085,
      "Ġtion": 3086,
      "Ġtim": 3087,
      "Ġtension": 3088,
      "Ġaud": 3089,
      "inally": 3090,
      "inine": 3091,
      "inite": 3092,
      "inology": 3093,
      "rer": 3094,
      "reement": 3095,
      "ision": 3096,
      "Ġsin": 3097,
      "Ġsle": 3098,
      "Ġside": 3099,
      "Ġspect": 3100,
      "nding": 3101,
      "Ġwif": 3102,
      "Ġwand": 3103,
      "Ġwish": 3104,
      "era": 3105,
      "eric": 3106,
      "eration": 3107,
      "eries": 3108,
      "ites": 3109,
      "itable": 3110,
      "ats": 3111,
      "ater": 3112,
      "ator": 3113,
      "atch": 3114,
      "atri": 3115,
      "atred": 3116,
      "ony": 3117,
      "onic": 3118,
      "Ġ\"âĢĶ": 3119,
      "enced": 3120,
      "escart": 3121,
      "Ġpure": 3122,
      "Ġpress": 3123,
      "Ġpublishes": 3124,
      "Ġcar": 3125,
      "Ġcust": 3126,
      "Ġcun": 3127,
      "Ġtool": 3128,
      "Ġtoug": 3129,
      "Ġfing": 3130,
      "Ġfant": 3131,
      "Ġfight": 3132,
      "Ġfoot": 3133,
      "Ġhou": 3134,
      "Ġhom": 3135,
      "Ġhope": 3136,
      "Ġhour": 3137,
      "Ġholy": 3138,
      "Ġhatred": 3139,
      "Ġmar": 3140,
      "Ġmill": 3141,
      "Ġmess": 3142,
      "Ġmiddle": 3143,
      "orth": 3144,
      "orman": 3145,
      "orical": 3146,
      "Ġbon": 3147,
      "Ġbirth": 3148,
      "outh": 3149,
      "aly": 3150,
      "alog": 3151,
      "Ġdu": 3152,
      "Ġdam": 3153,
      "Ġdress": 3154,
      "Ġdare": 3155,
      "stract": 3156,
      "stmann": 3157,
      "ica": 3158,
      "icul": 3159,
      "ician": 3160,
      "icists": 3161,
      "aris": 3162,
      "aries": 3163,
      "Ġisol": 3164,
      "Ġepoch": 3165,
      "Ġnu": 3166,
      "Ġnon": 3167,
      "illed": 3168,
      "ilities": 3169,
      "Ġbeget": 3170,
      "Ġlower": 3171,
      "Ġlives": 3172,
      "Ġloss": 3173,
      "Ġlines": 3174,
      "asc": 3175,
      "asm": 3176,
      "asion": 3177,
      "Ġity": 3178,
      "cts": 3179,
      "Ġrev": 3180,
      "Ġrestr": 3181,
      "enty": 3182,
      "Ġgre": 3183,
      "Ġgest": 3184,
      "Ġgame": 3185,
      "utions": 3186,
      "ether": 3187,
      "irror": 3188,
      "Ġhes": 3189,
      "Ġheld": 3190,
      "Ġheights": 3191,
      "igor": 3192,
      "Ġonto": 3193,
      "Ġontological": 3194,
      "Ġstay": 3195,
      "Ġstick": 3196,
      "Ġsturd": 3197,
      "Ġstories": 3198,
      "Ġhabit": 3199,
      "uries": 3200,
      "urance": 3201,
      "ossible": 3202,
      "olf": 3203,
      "olic": 3204,
      "Ġnotion": 3205,
      "Ġnotice": 3206,
      "istics": 3207,
      "els": 3208,
      "elan": 3209,
      "eless": 3210,
      "elled": 3211,
      "ravag": 3212,
      "Ġmood": 3213,
      "Ġmovement": 3214,
      "Ġori": 3215,
      "ĠGr": 3216,
      "ĠGay": 3217,
      "ĠInd": 3218,
      "Ġprol": 3219,
      "Ġprogress": 3220,
      "Ġvent": 3221,
      "Ġvol": 3222,
      "Ġvain": 3223,
      "Ġviv": 3224,
      "that": 3225,
      "adame": 3226,
      "estig": 3227,
      "Ġexact": 3228,
      "Ġexcell": 3229,
      "uses": 3230,
      "ciences": 3231,
      "Ġabys": 3232,
      "Ġrhy": 3233,
      "Ġrob": 3234,
      "Ġrhet": 3235,
      "Ġdevil": 3236,
      "Ġdecept": 3237,
      "ained": 3238,
      "ĠEm": 3239,
      "anted": 3240,
      "antage": 3241,
      "ĠBible": 3242,
      "Ġpeo": 3243,
      "Ġpeace": 3244,
      "Ġpeasant": 3245,
      "chen": 3246,
      "ief": 3247,
      "urean": 3248,
      "Ġsection": 3249,
      "Ġsevere": 3250,
      "ĠNew": 3251,
      "Ġattain": 3252,
      "Ġatav": 3253,
      "Ġtrust": 3254,
      "Ġtrium": 3255,
      "ems": 3256,
      "Ġintr": 3257,
      "Ġintim": 3258,
      "Ġintrodu": 3259,
      "Ġintentions": 3260,
      "Ġintended": 3261,
      "Ġcompl": 3262,
      "Ġcomedy": 3263,
      "respond": 3264,
      "ilosoph": 3265,
      "Ġworse": 3266,
      "Ġjeal": 3267,
      "Ġlead": 3268,
      "Ġleave": 3269,
      "Ġleads": 3270,
      "Ġsple": 3271,
      "ĠWhy": 3272,
      "ĠWrit": 3273,
      "ote": 3274,
      "otic": 3275,
      "otion": 3276,
      "That": 3277,
      "Though": 3278,
      "lace": 3279,
      "ĠPart": 3280,
      "ĠPerhaps": 3281,
      "ĠPeoples": 3282,
      "udes": 3283,
      "udien": 3284,
      "Ġmoralists": 3285,
      "Ġarch": 3286,
      "Ġanyway": 3287,
      "ĠAd": 3288,
      "ĠAl": 3289,
      "ĠAs": 3290,
      "ĠArt": 3291,
      "ĠAsia": 3292,
      "Ġloved": 3293,
      "Ġdisag": 3294,
      "Ġdisastr": 3295,
      "ĠScience": 3296,
      "ĠSto": 3297,
      "ĠSpo": 3298,
      "Ġprev": 3299,
      "Ġpreac": 3300,
      "okes": 3301,
      "Ġque": 3302,
      "Ġqui": 3303,
      "unich": 3304,
      "Ġeng": 3305,
      "ledged": 3306,
      "ĠHer": 3307,
      "ĠHist": 3308,
      "fully": 3309,
      "Ġconscious": 3310,
      "sibility": 3311,
      "ologically": 3312,
      "Ġoverwhelm": 3313,
      "Ġ21": 3314,
      "Ġ27": 3315,
      "ĠFaust": 3316,
      "ĠMed": 3317,
      "ĠMunich": 3318,
      "acht": 3319,
      "Ġagree": 3320,
      "Ġsubst": 3321,
      "Ġambition": 3322,
      "Ġgrows": 3323,
      "Ġgrateful": 3324,
      "Ġthanks": 3325,
      "Ġthinker": 3326,
      "Ġposition": 3327,
      "Ġcontempt": 3328,
      "Ġdesc": 3329,
      "assuming": 3330,
      "Ġbelieving": 3331,
      "uality": 3332,
      "ishness": 3333,
      "ĠDis": 3334,
      "ĠDie": 3335,
      "Ġseemed": 3336,
      "Ġindust": 3337,
      "ĠTruth": 3338,
      "Ġaccid": 3339,
      "Ġvirtuous": 3340,
      "Ġarts": 3341,
      "Ġapprop": 3342,
      "ishes": 3343,
      "Ġterminology": 3344,
      "ructive": 3345,
      "Ġ88": 3346,
      "Ġ89": 3347,
      "ĠEuropeans": 3348,
      "Ġrightly": 3349,
      "ĠVolt": 3350,
      "Ġspeaking": 3351,
      "Ġspecific": 3352,
      "Ġobe": 3353,
      "Ġends": 3354,
      "Ġlongest": 3355,
      "hens": 3356,
      "Ġactivity": 3357,
      "Ġcertainty": 3358,
      "Ġimply": 3359,
      "Ġimpression": 3360,
      "Ġimpossible": 3361,
      "185": 3362,
      "ending": 3363,
      "Ġinsight": 3364,
      "Ġletting": 3365,
      "Ġpresum": 3366,
      "Ġpresque": 3367,
      "Ġpreservation": 3368,
      "theless": 3369,
      "Ġwrites": 3370,
      "Ġwritten": 3371,
      "Ġremoved": 3372,
      "Ġaware": 3373,
      "Ġinvent": 3374,
      "Ġdistinction": 3375,
      "Ġhappen": 3376,
      "Ġhappiness": 3377,
      "Ġdrink": 3378,
      "Ġembar": 3379,
      "Ġoriginal": 3380,
      "Ġoriginates": 3381,
      "Ġplac": 3382,
      "Ġmetap": 3383,
      "Ġrealize": 3384,
      "Ġ32": 3385,
      "ĠJes": 3386,
      "Ġfoundation": 3387,
      "Ġinform": 3388,
      "Ġdisco": 3389,
      "Ġdiscriminating": 3390,
      "philosoph": 3391,
      "erved": 3392,
      "Ġassum": 3393,
      "Ġ156": 3394,
      "Ġ158": 3395,
      "Ġkept": 3396,
      "Ġcross": 3397,
      "Ġcrimin": 3398,
      "Ġ103": 3399,
      "Ġ104": 3400,
      "Ġextravag": 3401,
      "Ġacquire": 3402,
      "Ġoffer": 3403,
      "Ġputs": 3404,
      "Ġsubtlety": 3405,
      "Ġcultiv": 3406,
      "Ġcultural": 3407,
      "Ġhardness": 3408,
      "Ġrange": 3409,
      "Ġ43": 3410,
      "Ġbrings": 3411,
      "Ġconclus": 3412,
      "Ġessential": 3413,
      "Ġfrequent": 3414,
      "Ġbasic": 3415,
      "Ġelsewhere": 3416,
      "Ġinterpretations": 3417,
      "Ġearlier": 3418,
      "Ġuncle": 3419,
      "Ġunconscious": 3420,
      "Ġcharacteristics": 3421,
      "mely": 3422,
      "Ġpassage": 3423,
      "Ġfundamentally": 3424,
      "Ġmistake": 3425,
      "Ġmistaken": 3426,
      "Ġgrab": 3427,
      "barbar": 3428,
      "Ġutility": 3429,
      "Ġtragedy": 3430,
      "Ġcenturies": 3431,
      "ĠYork": 3432,
      "Ġillusions": 3433,
      "Ġcorner": 3434,
      "Ġgladly": 3435,
      "Beyond": 3436,
      "ĠGreece": 3437,
      "Ġprinciples": 3438,
      "born": 3439,
      "enealog": 3440,
      "Ġcreative": 3441,
      "Ġhiding": 3442,
      "Ġultimate": 3443,
      "Ġconceived": 3444,
      "ĠThus": 3445,
      "ĠThough": 3446,
      "Ġcausality": 3447,
      "Ġadvent": 3448,
      "Ġsilence": 3449,
      "versely": 3450,
      "Ġnecessarily": 3451,
      "aught": 3452,
      "ĠHegel": 3453,
      "Ġdespise": 3454,
      "Ġcommands": 3455,
      "Ġmisunderstood": 3456,
      "Ġpurp": 3457,
      "Ġpursu": 3458,
      "Ġmonst": 3459,
      "Ġblood": 3460,
      "Ġdelicate": 3461,
      "Ġphysical": 3462,
      "Ġtypical": 3463,
      "Ġfollowing": 3464,
      "Ġsatyr": 3465,
      "Ġmalice": 3466,
      "Ġmentioned": 3467,
      "Ġdepths": 3468,
      "ĠStudien": 3469,
      "Ġbecoming": 3470,
      "Ġdetermine": 3471,
      "Ġaffair": 3472,
      "Ġcounter": 3473,
      "Ġbreeding": 3474,
      "Ġdirection": 3475,
      "aze": 3476,
      "liche": 3477,
      "Ġversion": 3478,
      "Ġversions": 3479,
      "Ġaffects": 3480,
      "Ġlaugh": 3481,
      "Ġpossib": 3482,
      "Ġpossibility": 3483,
      "Ġobservation": 3484,
      "Ġincludes": 3485,
      "Ġinspires": 3486,
      "Ġconsequence": 3487,
      "Ġindependence": 3488,
      "Ġpolitics": 3489,
      "Ġminds": 3490,
      "Ġlabor": 3491,
      "ĠGeist": 3492,
      "Ġdisguise": 3493,
      "Ġgroup": 3494,
      "Ġvaluations": 3495,
      "Ġrecognize": 3496,
      "Ġsurprising": 3497,
      "Ġdegenerate": 3498,
      "Ġsuspicion": 3499,
      "Ġsuspicious": 3500,
      "Everything": 3501,
      "Ġident": 3502,
      "Ġoccasion": 3503,
      "Ġservice": 3504,
      "Ġmascul": 3505,
      "Ġvisual": 3506,
      "Ġexclus": 3507,
      "Ġdeceive": 3508,
      "Ġseveral": 3509,
      "Ġseverity": 3510,
      "Ġobviously": 3511,
      "Ġestablished": 3512,
      "Ġwaiting": 3513,
      "Ġphenomena": 3514,
      "Ġphenomenon": 3515,
      "XIV": 3516,
      "omething": 3517,
      "Ġreturn": 3518,
      "Ġanswers": 3519,
      "radiction": 3520,
      "Ġordinary": 3521,
      "ĠEpicurean": 3522,
      "Ġevalu": 3523,
      "Ġcomprehend": 3524,
      "ĠHorstmann": 3525,
      "Ġappreci": 3526,
      "Ġcleanliness": 3527,
      "Ġ1980": 3528,
      "Ġtalking": 3529,
      "Ġfatherlands": 3530,
      "Ġmonstrosity": 3531,
      "Ġhypotheses": 3532,
      "Although": 3533,
      "ennia": 3534,
      "Ġmixed": 3535,
      "Ġbusiness": 3536,
      "Ġegoism": 3537,
      "Ġdisposal": 3538,
      "ĠSee": 3539,
      "Ġexperiment": 3540,
      "Ġstrikes": 3541,
      "ĠDeut": 3542,
      "Ġcloser": 3543,
      "Ġdiscoverer": 3544,
      "Ġacknowledged": 3545,
      "Ġcircum": 3546,
      "lighten": 3547,
      "nowledge": 3548,
      "Ġoblig": 3549,
      "Ġpicture": 3550,
      "Ġcopies": 3551,
      "Ġdomi": 3552,
      "Ġeconomy": 3553,
      "Ġelevated": 3554,
      "Ġexercise": 3555,
      "ĠBasle": 3556,
      "Ġworship": 3557,
      "ĠSocrates": 3558,
      "Ġfeatures": 3559,
      "Ġprefer": 3560,
      "Ġchanges": 3561,
      "Ġsubtler": 3562,
      "Ġobedience": 3563,
      "Ġaphorisms": 3564,
      "ĠKaufmann": 3565,
      "Ġdisturbing": 3566,
      "Ġinfrequently": 3567,
      "Ġexplicit": 3568,
      "Ġconclusion": 3569,
      "Ġutilitarian": 3570,
      "Ġabsolutely": 3571,
      "objective": 3572,
      "Ġprivileges": 3573,
      "Ġbourgeois": 3574,
      "cratic": 3575,
      "Ġsleep": 3576,
      "Ġwifi": 3577,
      "escartes": 3578,
      "Ġcustom": 3579,
      "Ġcunning": 3580,
      "Ġtough": 3581,
      "Ġfantas": 3582,
      "Ġhouse": 3583,
      "Ġhours": 3584,
      "Ġmillennia": 3585,
      "Ġmessage": 3586,
      "Ġsturdy": 3587,
      "Ġvivis": 3588,
      "Ġabyss": 3589,
      "Ġjealous": 3590,
      "Ġdisastrous": 3591,
      "ĠSpoke": 3592,
      "Ġappropri": 3593,
      "ĠVoltaire": 3594,
      "Ġembarrass": 3595,
      "Ġconclusions": 3596,
      "34": 3597,
      "42": 3598,
      "53": 3599,
      "64": 3600,
      "69": 3601,
      "76": 3602,
      "78": 3603,
      "79": 3604,
      "84": 3605,
      "88": 3606,
      "94": 3607,
      "95": 3608,
      "Ab": 3609,
      "All": 3610,
      "BGE": 3611,
      "Cambridge": 3612,
      "First": 3613,
      "Finally": 3614,
      "Holl": 3615,
      "Int": 3616,
      "Just": 3617,
      "Moral": 3618,
      "Morality": 3619,
      "Ne": 3620,
      "Se": 3621,
      "Sla": 3622,
      "Un": 3623,
      "Will": 3624,
      "XX": 3625,
      "aw": 3626,
      "ael": 3627,
      "action": 3628,
      "akness": 3629,
      "bi": 3630,
      "bas": 3631,
      "bors": 3632,
      "cf": 3633,
      "cle": 3634,
      "cure": 3635,
      "certain": 3636,
      "cular": 3637,
      "dm": 3638,
      "ding": 3639,
      "dain": 3640,
      "dict": 3641,
      "dually": 3642,
      "dale": 3643,
      "ein": 3644,
      "evil": 3645,
      "fra": 3646,
      "from": 3647,
      "gl": 3648,
      "gic": 3649,
      "gth": 3650,
      "hn": 3651,
      "hold": 3652,
      "iol": 3653,
      "iel": 3654,
      "iently": 3655,
      "ibility": 3656,
      "kind": 3657,
      "krit": 3658,
      "kward": 3659,
      "li": 3660,
      "ls": 3661,
      "lw": 3662,
      "line": 3663,
      "life": 3664,
      "lict": 3665,
      "lied": 3666,
      "lude": 3667,
      "lark": 3668,
      "lossary": 3669,
      "mn": 3670,
      "my": 3671,
      "min": 3672,
      "mes": 3673,
      "mor": 3674,
      "mas": 3675,
      "mbl": 3676,
      "medi": 3677,
      "mew": 3678,
      "mark": 3679,
      "mene": 3680,
      "minded": 3681,
      "no": 3682,
      "nos": 3683,
      "oom": 3684,
      "ping": 3685,
      "pity": 3686,
      "power": 3687,
      "psych": 3688,
      "piece": 3689,
      "place": 3690,
      "ray": 3691,
      "rans": 3692,
      "rious": 3693,
      "rang": 3694,
      "sn": 3695,
      "sent": 3696,
      "side": 3697,
      "sided": 3698,
      "tes": 3699,
      "tic": 3700,
      "tausgabe": 3701,
      "tliche": 3702,
      "up": 3703,
      "use": 3704,
      "uff": 3705,
      "vi": 3706,
      "vity": 3707,
      "win": 3708,
      "wit": 3709,
      "well": 3710,
      "yst": 3711,
      "ze": 3712,
      "zed": 3713,
      "Ġ)": 3714,
      "Ġil": 3715,
      "Ġ,'": 3716,
      "Ġern": 3717,
      "Ġ),": 3718,
      "Ġtent": 3719,
      "Ġtast": 3720,
      "Ġtions": 3721,
      "Ġtaught": 3722,
      "Ġaver": 3723,
      "Ġaim": 3724,
      "Ġair": 3725,
      "Ġachie": 3726,
      "Ġafra": 3727,
      "head": 3728,
      "inv": 3729,
      "inet": 3730,
      "inqu": 3731,
      "inter": 3732,
      "Ġowe": 3733,
      "Ġtheology": 3734,
      "rees": 3735,
      "isdom": 3736,
      "Ġsn": 3737,
      "Ġsout": 3738,
      "Ġsag": 3739,
      "Ġsold": 3740,
      "Ġsix": 3741,
      "Ġsoph": 3742,
      "Ġseries": 3743,
      "ndor": 3744,
      "ndom": 3745,
      "Ġwide": 3746,
      "Ġwaste": 3747,
      "Ġwider": 3748,
      "Ġwishes": 3749,
      "Ġwisdom": 3750,
      "erous": 3751,
      "erable": 3752,
      "erick": 3753,
      "itiv": 3754,
      "itect": 3755,
      "ators": 3756,
      "onn": 3757,
      "Ġ\"*": 3758,
      "Ġ\"âĢĻ": 3759,
      "ench": 3760,
      "enari": 3761,
      "ength": 3762,
      "esam": 3763,
      "eside": 3764,
      "Ġpen": 3765,
      "Ġpul": 3766,
      "Ġperm": 3767,
      "Ġpiety": 3768,
      "Ġpatience": 3769,
      "Ġcit": 3770,
      "Ġcal": 3771,
      "Ġcost": 3772,
      "Ġcaste": 3773,
      "Ġcold": 3774,
      "Ġcover": 3775,
      "Ġtoward": 3776,
      "Ġtopic": 3777,
      "Ġtomor": 3778,
      "Ġfest": 3779,
      "Ġfond": 3780,
      "Ġflat": 3781,
      "Ġhop": 3782,
      "Ġhost": 3783,
      "Ġhung": 3784,
      "Ġmad": 3785,
      "Ġmark": 3786,
      "Ġmarks": 3787,
      "Ġmirror": 3788,
      "org": 3789,
      "orable": 3790,
      "Ġbond": 3791,
      "Ġbreat": 3792,
      "Ġbind": 3793,
      "Ġburn": 3794,
      "Ġbiograph": 3795,
      "Ġbeside": 3796,
      "Ġthous": 3797,
      "ane": 3798,
      "anes": 3799,
      "aning": 3800,
      "anner": 3801,
      "oul": 3802,
      "ingdale": 3803,
      "alp": 3804,
      "although": 3805,
      "Ġinher": 3806,
      "Ġinner": 3807,
      "Ġinference": 3808,
      "Ġdies": 3809,
      "Ġdorm": 3810,
      "Ġdark": 3811,
      "leg": 3812,
      "lement": 3813,
      "edic": 3814,
      "edant": 3815,
      "edness": 3816,
      "sto": 3817,
      "stances": 3818,
      "stead": 3819,
      "iced": 3820,
      "icient": 3821,
      "arch": 3822,
      "arwin": 3823,
      "Ġein": 3824,
      "Ġeth": 3825,
      "Ġeff": 3826,
      "Ġetern": 3827,
      "Ġnat": 3828,
      "Ġnational": 3829,
      "Ġninet": 3830,
      "omas": 3831,
      "omism": 3832,
      "ilation": 3833,
      "sear": 3834,
      "Ġbears": 3835,
      "Ġbeasts": 3836,
      "Ġlad": 3837,
      "Ġlone": 3838,
      "Ġlength": 3839,
      "asy": 3840,
      "ceived": 3841,
      "cted": 3842,
      "Ġrepe": 3843,
      "Ġrequ": 3844,
      "Ġrela": 3845,
      "Ġreact": 3846,
      "Ġrevers": 3847,
      "Ġreached": 3848,
      "Ġreaches": 3849,
      "entment": 3850,
      "Ġgave": 3851,
      "Ġgaze": 3852,
      "Ġnobl": 3853,
      "Ġnoisy": 3854,
      "uther": 3855,
      "utical": 3856,
      "utable": 3857,
      "opical": 3858,
      "eth": 3859,
      "ets": 3860,
      "etron": 3861,
      "imate": 3862,
      "Ġforward": 3863,
      "owed": 3864,
      "oward": 3865,
      "owds": 3866,
      "Ġur": 3867,
      "irs": 3868,
      "irms": 3869,
      "Ġhead": 3870,
      "Ġheight": 3871,
      "Ġhero": 3872,
      "Ġhence": 3873,
      "Ġheads": 3874,
      "igible": 3875,
      "Ġalt": 3876,
      "Ġally": 3877,
      "Ġann": 3878,
      "Ġanger": 3879,
      "Ġ-)": 3880,
      "Ġ-,": 3881,
      "Ġ-:": 3882,
      "Ġ-),": 3883,
      "herd": 3884,
      "hern": 3885,
      "hermene": 3886,
      "uri": 3887,
      "urt": 3888,
      "urus": 3889,
      "urther": 3890,
      "aybre": 3891,
      "osing": 3892,
      "illiness": 3893,
      "iding": 3894,
      "idel": 3895,
      "Ġconnot": 3896,
      "oler": 3897,
      "ifal": 3898,
      "essor": 3899,
      "eland": 3900,
      "racy": 3901,
      "ull": 3902,
      "ulated": 3903,
      "Ġmock": 3904,
      "Ġsuited": 3905,
      "keit": 3906,
      "pends": 3907,
      "ĠGalian": 3908,
      "ĠGenealog": 3909,
      "ĠGesam": 3910,
      "ĠId": 3911,
      "ĠIII": 3912,
      "Ġpron": 3913,
      "Ġprime": 3914,
      "Ġvast": 3915,
      "Ġvices": 3916,
      "Ġviol": 3917,
      "seless": 3918,
      "ading": 3919,
      "adem": 3920,
      "adox": 3921,
      "Ġ114": 3922,
      "Ġweakness": 3923,
      "Ġexem": 3924,
      "Ġexcess": 3925,
      "ussi": 3926,
      "quer": 3927,
      "Ġwhoever": 3928,
      "Ġabstract": 3929,
      "Ġrid": 3930,
      "Ġround": 3931,
      "Ġrough": 3932,
      "Ġrise": 3933,
      "Ġrang": 3934,
      "Ġrole": 3935,
      "Ġridd": 3936,
      "Ġroot": 3937,
      "Ġallows": 3938,
      "Ġallusion": 3939,
      "Ġdeath": 3940,
      "Ġdepends": 3941,
      "ichrist": 3942,
      "aine": 3943,
      "ersonal": 3944,
      "ĠEd": 3945,
      "ĠEr": 3946,
      "ĠBonn": 3947,
      "ivial": 3948,
      "Ġyes": 3949,
      "Ġpecul": 3950,
      "Ġphy": 3951,
      "iere": 3952,
      "iend": 3953,
      "ightly": 3954,
      "ĠNorman": 3955,
      "Ġatomism": 3956,
      "Ġtropical": 3957,
      "Ġtrivial": 3958,
      "ntichrist": 3959,
      "Ġthemes": 3960,
      "thern": 3961,
      "Ġcomb": 3962,
      "Ġcoming": 3963,
      "Ġcomments": 3964,
      "onged": 3965,
      "ptive": 3966,
      "Ġju": 3967,
      "Ġsoil": 3968,
      "artet": 3969,
      "Ġspo": 3970,
      "erer": 3971,
      "erent": 3972,
      "ĠWith": 3973,
      "ĠWhere": 3974,
      "ĠWhich": 3975,
      "ĠNietzschean": 3976,
      "oteric": 3977,
      "Things": 3978,
      "Ġmeasure": 3979,
      "ĠPre": 3980,
      "ĠPur": 3981,
      "ĠPers": 3982,
      "ĠPars": 3983,
      "ĠParis": 3984,
      "ĠPetron": 3985,
      "Ġmanif": 3986,
      "Ġmankind": 3987,
      "Ġproced": 3988,
      "ounds": 3989,
      "Ġanymore": 3990,
      "ĠAr": 3991,
      "ĠAre": 3992,
      "ĠArist": 3993,
      "ĠAntichrist": 3994,
      "ĠThese": 3995,
      "Ġdisor": 3996,
      "Ġdisse": 3997,
      "Ġdisinte": 3998,
      "Ġdisdain": 3999,
      "knowledge": 4000,
      "orting": 4001,
      "ĠSw": 4002,
      "ĠSpin": 4003,
      "ĠSdm": 4004,
      "Ġprec": 4005,
      "Ġprey": 4006,
      "Ġquality": 4007,
      "Ġunable": 4008,
      "oney": 4009,
      "erian": 4010,
      "Ġcho": 4011,
      "Ġchrist": 4012,
      "acks": 4013,
      "abled": 4014,
      "orers": 4015,
      "elligible": 4016,
      "Ġexpense": 4017,
      "Ġexpert": 4018,
      "Ġenem": 4019,
      "Ġenlighten": 4020,
      "into": 4021,
      "sik": 4022,
      "ologist": 4023,
      "ologists": 4024,
      "Ġgoodness": 4025,
      "Ġpoems": 4026,
      "Ġovercoming": 4027,
      "Ġstrive": 4028,
      "Ġstroke": 4029,
      "Ġstruct": 4030,
      "ĠFre": 4031,
      "ĠFred": 4032,
      "ĠFicht": 4033,
      "ĠMadame": 4034,
      "ĠMacht": 4035,
      "Ġresentment": 4036,
      "Ġupon": 4037,
      "Ġupset": 4038,
      "ocke": 4039,
      "ocate": 4040,
      "ocracy": 4041,
      "ĠCor": 4042,
      "ĠCom": 4043,
      "ĠComp": 4044,
      "ĠCambridge": 4045,
      "Ġages": 4046,
      "Ġoutlook": 4047,
      "Ġsour": 4048,
      "angled": 4049,
      "riage": 4050,
      "Ġinstit": 4051,
      "Ġtruthfulness": 4052,
      "Ġtear": 4053,
      "Ġteac": 4054,
      "Ġtender": 4055,
      "Ġteaches": 4056,
      "Ġamaz": 4057,
      "Ġgrat": 4058,
      "Ġgray": 4059,
      "Ġgrues": 4060,
      "Ġthank": 4061,
      "Ġpersons": 4062,
      "allow": 4063,
      "ferences": 4064,
      "ĠRelig": 4065,
      "ĠRolf": 4066,
      "Ġcaution": 4067,
      "Ġrapid": 4068,
      "Ġrandom": 4069,
      "Ġrelinqu": 4070,
      "Ġcontent": 4071,
      "Ġcontrol": 4072,
      "Ġdesper": 4073,
      "Ġdesinte": 4074,
      "Ġbelievers": 4075,
      "Ġdoesn": 4076,
      "ĠDescartes": 4077,
      "ĠDarwin": 4078,
      "ĠDaybre": 4079,
      "Ġindis": 4080,
      "Ġindicate": 4081,
      "ĠTw": 4082,
      "Ġaccom": 4083,
      "Ġaccur": 4084,
      "Ġaccord": 4085,
      "Ġaccomp": 4086,
      "Ġartist": 4087,
      "Ġapplic": 4088,
      "Ġappoint": 4089,
      "Ġclum": 4090,
      "Ġhumane": 4091,
      "Ġreader": 4092,
      "Ġ81": 4093,
      "Ġ84": 4094,
      "Ġperfect": 4095,
      "Ġperceived": 4096,
      "Ġentangled": 4097,
      "atholic": 4098,
      "plies": 4099,
      "ĠVerm": 4100,
      "ĠVII": 4101,
      "ĠLife": 4102,
      "ĠLove": 4103,
      "ĠLuther": 4104,
      "ĠLocke": 4105,
      "icted": 4106,
      "igned": 4107,
      "Ġselfless": 4108,
      "henian": 4109,
      "hensible": 4110,
      "Ġincom": 4111,
      "Ġbetray": 4112,
      "Ġreasonable": 4113,
      "Ġdifferences": 4114,
      "Ġactions": 4115,
      "Ġimper": 4116,
      "Ġimpud": 4117,
      "Ġimpersonal": 4118,
      "Ġlets": 4119,
      "Ġletter": 4120,
      "Ġconsiders": 4121,
      "Ġclaimed": 4122,
      "Ġherself": 4123,
      "ollow": 4124,
      "Ġattitude": 4125,
      "ovel": 4126,
      "Ġgover": 4127,
      "version": 4128,
      "ĠItalian": 4129,
      "ĠItaly": 4130,
      "Ġoppress": 4131,
      "Ġcondem": 4132,
      "Ġrefers": 4133,
      "Ġreflect": 4134,
      "Ġrefuted": 4135,
      "Ġreflection": 4136,
      "Ġremind": 4137,
      "Ġawkward": 4138,
      "Ġsuffers": 4139,
      "Ġcommun": 4140,
      "ĠKSA": 4141,
      "Ġfinished": 4142,
      "Ġinval": 4143,
      "Ġinvestig": 4144,
      "Ġdistress": 4145,
      "Ġdistrust": 4146,
      "Ġreligions": 4147,
      "Ġdifferently": 4148,
      "Ġdriven": 4149,
      "Ġemb": 4150,
      "Ġ1967": 4151,
      "Ġopera": 4152,
      "Ġmisle": 4153,
      "Ġmischie": 4154,
      "ĠJud": 4155,
      "ĠJean": 4156,
      "Ġcompet": 4157,
      "Ġcompens": 4158,
      "Ġcompared": 4159,
      "Ġcompany": 4160,
      "Ġcompelled": 4161,
      "Ġassert": 4162,
      "Ġ154": 4163,
      "Ġtransf": 4164,
      "Ġtransform": 4165,
      "Ġquestioning": 4166,
      "Ġquestionable": 4167,
      "Ġcrud": 4168,
      "Ġcrowds": 4169,
      "Ġ107": 4170,
      "Ġnevertheless": 4171,
      "Ġsensations": 4172,
      "Ġoffensive": 4173,
      "Ġplebe": 4174,
      "Ġpleasant": 4175,
      "Ġforemost": 4176,
      "Ġstands": 4177,
      "Ġstanding": 4178,
      "ocrity": 4179,
      "Ġeasier": 4180,
      "Ġjudge": 4181,
      "Ġexplo": 4182,
      "Ġthroughout": 4183,
      "Ġ41": 4184,
      "Ġ46": 4185,
      "Ġrecently": 4186,
      "entional": 4187,
      "Ġbelonging": 4188,
      "Ġrespectability": 4189,
      "ĠChron": 4190,
      "Ġprofoundly": 4191,
      "Ġ65": 4192,
      "Ġ68": 4193,
      "Ġplays": 4194,
      "Ġuseful": 4195,
      "racted": 4196,
      "ĠEnglishman": 4197,
      "ĠEnglishmen": 4198,
      "avorable": 4199,
      "bert": 4200,
      "insically": 4201,
      "Ġbasically": 4202,
      "Ġuntruth": 4203,
      "iveness": 4204,
      "ĠFran": 4205,
      "ribly": 4206,
      "Ġoppositions": 4207,
      "Ġ78": 4208,
      "lected": 4209,
      "utional": 4210,
      "Ġphilosophizing": 4211,
      "Ġuncertain": 4212,
      "Ġsimplicity": 4213,
      "Ġgradually": 4214,
      "Ġgravity": 4215,
      "Ġruled": 4216,
      "Ġtranslate": 4217,
      "iii": 4218,
      "Ġcritics": 4219,
      "Ġcriticism": 4220,
      "Ġpropag": 4221,
      "Ġimmorality": 4222,
      "Ġhelps": 4223,
      "ltimately": 4224,
      "136": 4225,
      "153": 4226,
      "overcoming": 4227,
      "hesis": 4228,
      "Ġcorrespond": 4229,
      "Ġconvince": 4230,
      "Ġconvictions": 4231,
      "Ġconventional": 4232,
      "akening": 4233,
      "108": 4234,
      "xxx": 4235,
      "Ġerr": 4236,
      "Ġskeptic": 4237,
      "Ġskeptical": 4238,
      "Ġequals": 4239,
      "Ġequality": 4240,
      "Ġhandy": 4241,
      "Ġsuccessful": 4242,
      "Ġgrowing": 4243,
      "Ġauthority": 4244,
      "progress": 4245,
      "ĠUnt": 4246,
      "Ġcreatures": 4247,
      "Ġmediocrity": 4248,
      "Ġ143": 4249,
      "Ġ144": 4250,
      "Ġdecision": 4251,
      "ucher": 4252,
      "ĠThomas": 4253,
      "Ġsland": 4254,
      "Ġmasters": 4255,
      "Ġdestruction": 4256,
      "Ġguise": 4257,
      "Ġdevotion": 4258,
      "Ġarray": 4259,
      "aphysik": 4260,
      "Ġadmir": 4261,
      "Ġadvantage": 4262,
      "Ġconditioned": 4263,
      "Ġstupidities": 4264,
      "Ġcultures": 4265,
      "common": 4266,
      "Ġturning": 4267,
      "Ġturned": 4268,
      "Ġscr": 4269,
      "Ġscenari": 4270,
      "Ġparadox": 4271,
      "Ġpaths": 4272,
      "Ġeffects": 4273,
      "Ġexistential": 4274,
      "Ġnecessary": 4275,
      "Ġprocesses": 4276,
      "Ġdespair": 4277,
      "Ġdespises": 4278,
      "fortunately": 4279,
      "Ġnorth": 4280,
      "Ġnorthern": 4281,
      "Ġanimals": 4282,
      "Ġstops": 4283,
      "Ġphysicists": 4284,
      "Ġspecial": 4285,
      "Ġregarding": 4286,
      "Ġregarded": 4287,
      "going": 4288,
      "uousness": 4289,
      "Ġpraises": 4290,
      "Ġmax": 4291,
      "Ġnumbers": 4292,
      "Ġsuspect": 4293,
      "Ġproduced": 4294,
      "Ġproductive": 4295,
      "Ġnegation": 4296,
      "Ġpredicate": 4297,
      "Ġcontradict": 4298,
      "Ġentirely": 4299,
      "Ġpsychologists": 4300,
      "Ġplaying": 4301,
      "Ġplayed": 4302,
      "Ġconcerned": 4303,
      "Ġdetermined": 4304,
      "Ġdeterminate": 4305,
      "Ġcountries": 4306,
      "Ġbitter": 4307,
      "Ġdefined": 4308,
      "Ġshowed": 4309,
      "Ġobjection": 4310,
      "Ġattempts": 4311,
      "Ġmetaphysicians": 4312,
      "Ġliterary": 4313,
      "Ġfriendship": 4314,
      "neigh": 4315,
      "Ġcolors": 4316,
      "Ġcollection": 4317,
      "Ġcapable": 4318,
      "Ġdeny": 4319,
      "Ġlistening": 4320,
      "Ġlaughing": 4321,
      "Ġhearing": 4322,
      "Ġstudent": 4323,
      "ĠMorals": 4324,
      "Ġconstituted": 4325,
      "Ġmisunderstanding": 4326,
      "Ġmisunderstandings": 4327,
      "ynam": 4328,
      "yncratic": 4329,
      "yrin": 4330,
      "Ġsacrific": 4331,
      "Ġpolitical": 4332,
      "Ġframew": 4333,
      "Ġlabyrin": 4334,
      "Ġgains": 4335,
      "Ġsteps": 4336,
      "Ġweaker": 4337,
      "Ġexpectations": 4338,
      "Ġdisguised": 4339,
      "Ġresistance": 4340,
      "Ġresistances": 4341,
      "ĠVersucher": 4342,
      "Ġschools": 4343,
      "Ġrecognition": 4344,
      "Ġdegeneration": 4345,
      "Ġproperly": 4346,
      "Ġfavorable": 4347,
      "ooks": 4348,
      "Ġidios": 4349,
      "Ġtemptation": 4350,
      "Ġoccur": 4351,
      "Ġservants": 4352,
      "Ġwondering": 4353,
      "Ġpractically": 4354,
      "Ġpractices": 4355,
      "Ġhorror": 4356,
      "Ġborn": 4357,
      "Ġlimited": 4358,
      "Ġphysiological": 4359,
      "Ġprovide": 4360,
      "Ġencoura": 4361,
      "Ġencourage": 4362,
      "Ġposturing": 4363,
      "Ġhonesty": 4364,
      "Ġtyrann": 4365,
      "Ġfortune": 4366,
      "Ġfortunate": 4367,
      "Ġsuggest": 4368,
      "control": 4369,
      "Ġfatal": 4370,
      "Ġbuild": 4371,
      "Ġlatter": 4372,
      "ophanes": 4373,
      "Ġanswer": 4374,
      "ĠEpicurus": 4375,
      "Ġevaluation": 4376,
      "Ġquotation": 4377,
      "Ġcontinu": 4378,
      "Ġindicates": 4379,
      "Ġinsistence": 4380,
      "Ġemerges": 4381,
      "Ġformula": 4382,
      "Ġformulas": 4383,
      "Ġfatherlandishness": 4384,
      "Ġdogmatism": 4385,
      "Ġseductive": 4386,
      "Ġhypothesis": 4387,
      "appoint": 4388,
      "historical": 4389,
      "proble": 4390,
      "Ġzu": 4391,
      "Ġiron": 4392,
      "Ġskin": 4393,
      "Ġwitness": 4394,
      "Ġtotal": 4395,
      "Ġfourth": 4396,
      "Ġmagn": 4397,
      "Ġduty": 4398,
      "Ġduties": 4399,
      "Ġlux": 4400,
      "Ġrequired": 4401,
      "ifts": 4402,
      "Ġabundance": 4403,
      "Ġrules": 4404,
      "Ġseparates": 4405,
      "ĠPhilosophy": 4406,
      "Ġdisease": 4407,
      "Ġcareless": 4408,
      "Ġrelationship": 4409,
      "Ġcontempor": 4410,
      "ĠDionys": 4411,
      "ĠDionysi": 4412,
      "Ġmysterious": 4413,
      "Ġmythological": 4414,
      "Ġinclinations": 4415,
      "Ġincreasingly": 4416,
      "Ġpresupposition": 4417,
      "Ġattributes": 4418,
      "Ġsynthetic": 4419,
      "Ġsynthesis": 4420,
      "Ġconcealed": 4421,
      "Ġinvoluntary": 4422,
      "Ġinvoluntarily": 4423,
      "Ġenthusiasm": 4424,
      "Ġemphasis": 4425,
      "Ġpessimist": 4426,
      "Conversely": 4427,
      "disinterested": 4428,
      "Ġavoid": 4429,
      "incing": 4430,
      "Ġsister": 4431,
      "Ġwounded": 4432,
      "Ġbenevol": 4433,
      "ounced": 4434,
      "ashion": 4435,
      "Ġrevolt": 4436,
      "etermined": 4437,
      "Ġassociated": 4438,
      "Ġorganic": 4439,
      "Ġvoice": 4440,
      "Ġvulgar": 4441,
      "Ġdocumented": 4442,
      "ĠAthenian": 4443,
      "Ġprepared": 4444,
      "Ġquickly": 4445,
      "Ġunfavorable": 4446,
      "Ġchaos": 4447,
      "unishment": 4448,
      "ĠMetaphysik": 4449,
      "Ġresponsibility": 4450,
      "Ġdescribed": 4451,
      "Ġspeech": 4452,
      "Ġdiscoveries": 4453,
      "Ġextremely": 4454,
      "Ġcharacterization": 4455,
      "Ġsympathy": 4456,
      "Ġcorruption": 4457,
      "Ġrepresent": 4458,
      "Ġmajority": 4459,
      "Ġinnocence": 4460,
      "ĠVersuchung": 4461,
      "perspectival": 4462,
      "Ġbarbarian": 4463,
      "Anyone": 4464,
      "Enough": 4465,
      "literally": 4466,
      "normal": 4467,
      "oza": 4468,
      "saying": 4469,
      "Ġpressure": 4470,
      "Ġfinger": 4471,
      "Ġmarriage": 4472,
      "Ġreview": 4473,
      "elanch": 4474,
      "Ġoriental": 4475,
      "ĠGrund": 4476,
      "Ġprolonged": 4477,
      "Ġexactly": 4478,
      "Ġrhetoric": 4479,
      "Ġatavism": 4480,
      "Ġtriumph": 4481,
      "Ġintrinsically": 4482,
      "Ġintimately": 4483,
      "Ġsplendor": 4484,
      "ĠWritings": 4485,
      "Ġarchitect": 4486,
      "ĠMedit": 4487,
      "Ġdescri": 4488,
      "Ġindustrious": 4489,
      "hensive": 4490,
      "Ġpresumpt": 4491,
      "Ġawareness": 4492,
      "Ġplacid": 4493,
      "Ġmetaph": 4494,
      "Ġdiscovery": 4495,
      "Ġassumption": 4496,
      "Ġunclear": 4497,
      "barbarism": 4498,
      "Ġpursued": 4499,
      "ĠStudienausgabe": 4500,
      "Ġexclusively": 4501,
      "Ġappreciate": 4502,
      "Ġcircumstances": 4503,
      "Ġexplicitly": 4504,
      "Hollingdale": 4505,
      "Ġtentatively": 4506,
      "Ġaverage": 4507,
      "Ġafraid": 4508,
      "Ġsouthern": 4509,
      "Ġsophistic": 4510,
      "Ġtomorrow": 4511,
      "Ġhunger": 4512,
      "Ġthousand": 4513,
      "Ġinherited": 4514,
      "Ġnineteenth": 4515,
      "Ġlonely": 4516,
      "Ġreactions": 4517,
      "hermeneutical": 4518,
      "Ġconnotations": 4519,
      "ĠGaliani": 4520,
      "ĠGenealogy": 4521,
      "ĠGesamtausgabe": 4522,
      "Ġexempl": 4523,
      "ussian": 4524,
      "Ġriddles": 4525,
      "Ġpeculiar": 4526,
      "ĠParsifal": 4527,
      "ĠPetronius": 4528,
      "Ġprocedure": 4529,
      "ĠAristophanes": 4530,
      "Ġdisintegr": 4531,
      "ĠSpinoza": 4532,
      "ĠSdmtliche": 4533,
      "ĠFrederick": 4534,
      "ĠFichte": 4535,
      "Ġgruesome": 4536,
      "ĠReligious": 4537,
      "Ġdesinteres": 4538,
      "ĠDaybreak": 4539,
      "Ġaccompan": 4540,
      "Ġplebeian": 4541,
      "ĠChronology": 4542,
      "Ġframework": 4543,
      "Ġidiosyncratic": 4544,
      "Ġcontemporaries": 4545,
      "!\"": 4546,
      "!)": 4547,
      "!)\"": 4548,
      "'!": 4549,
      "'\"": 4550,
      "';": 4551,
      "'?": 4552,
      ",âĢĻ": 4553,
      "08": 4554,
      "31": 4555,
      "33": 4556,
      "40": 4557,
      "44": 4558,
      "47": 4559,
      "55": 4560,
      "57": 4561,
      "60": 4562,
      "68": 4563,
      "74": 4564,
      "86": 4565,
      "92": 4566,
      "96": 4567,
      "97": 4568,
      "98": 4569,
      "Am": 4570,
      "Angl": 4571,
      "Amer": 4572,
      "Bas": 4573,
      "Biograph": 4574,
      "Both": 4575,
      "Books": 4576,
      "Ch": 4577,
      "Clark": 4578,
      "De": 4579,
      "Dif": 4580,
      "Europe": 4581,
      "Fr": 4582,
      "French": 4583,
      "Gr": 4584,
      "Good": 4585,
      "Great": 4586,
      "Hans": 4587,
      "Introduction": 4588,
      "Isn": 4589,
      "KSA": 4590,
      "Knowledge": 4591,
      "Like": 4592,
      "Mer": 4593,
      "More": 4594,
      "Many": 4595,
      "Our": 4596,
      "Qu": 4597,
      "Re": 4598,
      "Rather": 4599,
      "Relig": 4600,
      "SB": 4601,
      "She": 4602,
      "Sal": 4603,
      "Since": 4604,
      "Skept": 4605,
      "Vint": 4606,
      "Wh": 4607,
      "Writ": 4608,
      "Which": 4609,
      "Who": 4610,
      "Woman": 4611,
      "Yes": 4612,
      "Yet": 4613,
      "ae": 4614,
      "ai": 4615,
      "aith": 4616,
      "apt": 4617,
      "ault": 4618,
      "awn": 4619,
      "acious": 4620,
      "bes": 4621,
      "but": 4622,
      "bow": 4623,
      "buch": 4624,
      "bering": 4625,
      "base": 4626,
      "bending": 4627,
      "cst": 4628,
      "cent": 4629,
      "cest": 4630,
      "cus": 4631,
      "cla": 4632,
      "cated": 4633,
      "cogn": 4634,
      "caus": 4635,
      "des": 4636,
      "dig": 4637,
      "ek": 4638,
      "eed": 4639,
      "eight": 4640,
      "eem": 4641,
      "each": 4642,
      "egr": 4643,
      "fl": 4644,
      "fin": 4645,
      "far": 4646,
      "found": 4647,
      "fac": 4648,
      "four": 4649,
      "ford": 4650,
      "follow": 4651,
      "faith": 4652,
      "gn": 4653,
      "god": 4654,
      "gain": 4655,
      "great": 4656,
      "gai": 4657,
      "hi": 4658,
      "hon": 4659,
      "hal": 4660,
      "hic": 4661,
      "hom": 4662,
      "hard": 4663,
      "happ": 4664,
      "io": 4665,
      "iit": 4666,
      "iam": 4667,
      "iqu": 4668,
      "iant": 4669,
      "ience": 4670,
      "ibl": 4671,
      "ixt": 4672,
      "ients": 4673,
      "iented": 4674,
      "ki": 4675,
      "ker": 4676,
      "ken": 4677,
      "lit": 4678,
      "lig": 4679,
      "lla": 4680,
      "lated": 4681,
      "limin": 4682,
      "mo": 4683,
      "mar": 4684,
      "mus": 4685,
      "mond": 4686,
      "moral": 4687,
      "mall": 4688,
      "mits": 4689,
      "mina": 4690,
      "natural": 4691,
      "off": 4692,
      "overs": 4693,
      "oys": 4694,
      "ober": 4695,
      "oquent": 4696,
      "ped": 4697,
      "pus": 4698,
      "pure": 4699,
      "pres": 4700,
      "pap": 4701,
      "phy": 4702,
      "pens": 4703,
      "pire": 4704,
      "pass": 4705,
      "patri": 4706,
      "ran": 4707,
      "ring": 4708,
      "ral": 4709,
      "ric": 4710,
      "right": 4711,
      "rog": 4712,
      "rases": 4713,
      "sh": 4714,
      "sis": 4715,
      "ses": 4716,
      "sal": 4717,
      "sol": 4718,
      "sla": 4719,
      "scientific": 4720,
      "speci": 4721,
      "solute": 4722,
      "scher": 4723,
      "something": 4724,
      "soul": 4725,
      "small": 4726,
      "spap": 4727,
      "tt": 4728,
      "tu": 4729,
      "tly": 4730,
      "time": 4731,
      "tti": 4732,
      "ux": 4733,
      "ule": 4734,
      "upt": 4735,
      "uable": 4736,
      "uated": 4737,
      "uade": 4738,
      "vation": 4739,
      "wer": 4740,
      "wrong": 4741,
      "work": 4742,
      "winded": 4743,
      "xic": 4744,
      "xford": 4745,
      "Ġ/": 4746,
      "Ġic": 4747,
      "Ġve": 4748,
      "Ġtic": 4749,
      "Ġtas": 4750,
      "Ġtive": 4751,
      "Ġtie": 4752,
      "Ġture": 4753,
      "Ġtart": 4754,
      "Ġtree": 4755,
      "Ġtire": 4756,
      "Ġtied": 4757,
      "Ġtail": 4758,
      "Ġtitle": 4759,
      "Ġast": 4760,
      "Ġaut": 4761,
      "Ġaid": 4762,
      "Ġape": 4763,
      "Ġahead": 4764,
      "heart": 4765,
      "heism": 4766,
      "hemas": 4767,
      "iny": 4768,
      "ining": 4769,
      "inced": 4770,
      "inating": 4771,
      "infor": 4772,
      "inrich": 4773,
      "inement": 4774,
      "Ġous": 4775,
      "Ġomn": 4776,
      "rest": 4777,
      "rease": 4778,
      "reck": 4779,
      "isis": 4780,
      "iser": 4781,
      "isan": 4782,
      "isch": 4783,
      "issible": 4784,
      "isible": 4785,
      "Ġsent": 4786,
      "Ġsad": 4787,
      "Ġsqu": 4788,
      "Ġsong": 4789,
      "Ġsab": 4790,
      "Ġswe": 4791,
      "Ġserves": 4792,
      "Ġsides": 4793,
      "Ġsciences": 4794,
      "Ġswell": 4795,
      "Ġsilliness": 4796,
      "Ġwr": 4797,
      "Ġwid": 4798,
      "Ġwake": 4799,
      "Ġwise": 4800,
      "Ġwatch": 4801,
      "erk": 4802,
      "ero": 4803,
      "erred": 4804,
      "errible": 4805,
      "itself": 4806,
      "itudes": 4807,
      "atin": 4808,
      "atil": 4809,
      "attempt": 4810,
      "ones": 4811,
      "oned": 4812,
      "onent": 4813,
      "onents": 4814,
      "enge": 4815,
      "Ġoffere": 4816,
      "Ġpa": 4817,
      "Ġpay": 4818,
      "Ġpus": 4819,
      "Ġpie": 4820,
      "Ġpond": 4821,
      "Ġpun": 4822,
      "Ġpious": 4823,
      "Ġpage": 4824,
      "Ġpertain": 4825,
      "Ġpaid": 4826,
      "Ġparent": 4827,
      "Ġpati": 4828,
      "Ġpomp": 4829,
      "Ġphers": 4830,
      "Ġpunish": 4831,
      "Ġpatri": 4832,
      "Ġpalp": 4833,
      "Ġpedant": 4834,
      "Ġcer": 4835,
      "Ġcat": 4836,
      "Ġcul": 4837,
      "Ġcate": 4838,
      "Ġciv": 4839,
      "Ġcally": 4840,
      "Ġcens": 4841,
      "Ġcred": 4842,
      "Ġcyn": 4843,
      "Ġtort": 4844,
      "Ġtower": 4845,
      "Ġfo": 4846,
      "Ġfit": 4847,
      "Ġfan": 4848,
      "Ġfol": 4849,
      "Ġfast": 4850,
      "Ġfell": 4851,
      "Ġfire": 4852,
      "Ġfits": 4853,
      "Ġfix": 4854,
      "Ġfirm": 4855,
      "Ġfasc": 4856,
      "Ġferent": 4857,
      "Ġfashion": 4858,
      "Ġhar": 4859,
      "Ġhint": 4860,
      "Ġhomin": 4861,
      "Ġhuge": 4862,
      "Ġhoney": 4863,
      "Ġml": 4864,
      "Ġmit": 4865,
      "Ġmor": 4866,
      "Ġmid": 4867,
      "Ġmort": 4868,
      "Ġmaid": 4869,
      "Ġmild": 4870,
      "Ġmouth": 4871,
      "Ġmelanch": 4872,
      "orn": 4873,
      "oring": 4874,
      "orld": 4875,
      "orance": 4876,
      "orious": 4877,
      "oria": 4878,
      "oriented": 4879,
      "Ġban": 4880,
      "Ġbig": 4881,
      "Ġbod": 4882,
      "Ġbrit": 4883,
      "Ġbred": 4884,
      "Ġbless": 4885,
      "Ġbored": 4886,
      "Ġbiogra": 4887,
      "Ġborers": 4888,
      "anc": 4889,
      "ann": 4890,
      "anct": 4891,
      "anced": 4892,
      "aniel": 4893,
      "oust": 4894,
      "ingu": 4895,
      "alk": 4896,
      "alt": 4897,
      "alance": 4898,
      "alter": 4899,
      "almost": 4900,
      "Ġinso": 4901,
      "Ġinverse": 4902,
      "Ġinability": 4903,
      "Ġinborn": 4904,
      "Ġinversion": 4905,
      "Ġdil": 4906,
      "Ġdence": 4907,
      "Ġdans": 4908,
      "Ġdial": 4909,
      "Ġditions": 4910,
      "Ġdiar": 4911,
      "Ġdiversity": 4912,
      "Ġdares": 4913,
      "Ġdaring": 4914,
      "Ġdedic": 4915,
      "Ġdynam": 4916,
      "learn": 4917,
      "lete": 4918,
      "ede": 4919,
      "eden": 4920,
      "sts": 4921,
      "step": 4922,
      "stition": 4923,
      "staking": 4924,
      "ican": 4925,
      "icher": 4926,
      "icide": 4927,
      "icacy": 4928,
      "iciently": 4929,
      "arl": 4930,
      "arse": 4931,
      "ariness": 4932,
      "Ġisn": 4933,
      "Ġeat": 4934,
      "Ġech": 4935,
      "Ġela": 4936,
      "Ġearn": 4937,
      "Ġelement": 4938,
      "Ġecst": 4939,
      "Ġness": 4940,
      "Ġnight": 4941,
      "Ġnance": 4942,
      "Ġnour": 4943,
      "Ġnerv": 4944,
      "Ġnons": 4945,
      "Ġnurt": 4946,
      "omer": 4947,
      "omant": 4948,
      "omment": 4949,
      "ommend": 4950,
      "ilo": 4951,
      "iles": 4952,
      "iling": 4953,
      "ilight": 4954,
      "ilism": 4955,
      "ilhelm": 4956,
      "seau": 4957,
      "sequently": 4958,
      "Ġbear": 4959,
      "Ġbeings": 4960,
      "Ġlow": 4961,
      "Ġlay": 4962,
      "Ġlust": 4963,
      "Ġlink": 4964,
      "Ġlaid": 4965,
      "Ġlied": 4966,
      "Ġloud": 4967,
      "Ġlived": 4968,
      "Ġloses": 4969,
      "Ġlacks": 4970,
      "vey": 4971,
      "ased": 4972,
      "aschen": 4973,
      "asping": 4974,
      "Ġ':": 4975,
      "cending": 4976,
      "ctions": 4977,
      "ctober": 4978,
      "Ġreb": 4979,
      "Ġrend": 4980,
      "Ġrender": 4981,
      "Ġreject": 4982,
      "Ġreward": 4983,
      "Ġrethink": 4984,
      "Ġresear": 4985,
      "Ġreinfor": 4986,
      "Ġgot": 4987,
      "Ġgone": 4988,
      "Ġgall": 4989,
      "Ġgently": 4990,
      "Ġgifts": 4991,
      "Ġnob": 4992,
      "Ġnois": 4993,
      "Ġnoon": 4994,
      "Ġnoise": 4995,
      "Ġnovel": 4996,
      "utation": 4997,
      "ophel": 4998,
      "vert": 4999,
      "verbs": 5000,
      "etween": 5001,
      "ette": 5002,
      "etho": 5003,
      "imul": 5004,
      "imated": 5005,
      "immedi": 5006,
      "Ġasks": 5007,
      "Ġforbid": 5008,
      "Ġug": 5009,
      "Ġum": 5010,
      "Ġuseless": 5011,
      "iricism": 5012,
      "Ġhered": 5013,
      "ige": 5014,
      "Ġalas": 5015,
      "Ġaloud": 5016,
      "Ġalien": 5017,
      "Ġanew": 5018,
      "Ġangr": 5019,
      "Ġantic": 5020,
      "Ġanarch": 5021,
      "Ġancest": 5022,
      "Ġ-):": 5023,
      "odd": 5024,
      "odge": 5025,
      "oderation": 5026,
      "Ġstar": 5027,
      "Ġstra": 5028,
      "Ġstink": 5029,
      "Ġstress": 5030,
      "Ġstage": 5031,
      "Ġstorm": 5032,
      "Ġstench": 5033,
      "Ġstimul": 5034,
      "chl": 5035,
      "chan": 5036,
      "chman": 5037,
      "chant": 5038,
      "urs": 5039,
      "urity": 5040,
      "urally": 5041,
      "aymond": 5042,
      "osen": 5043,
      "ositions": 5044,
      "ills": 5045,
      "illiant": 5046,
      "ident": 5047,
      "idental": 5048,
      "Ġconven": 5049,
      "Ġconvers": 5050,
      "oles": 5051,
      "olish": 5052,
      "older": 5053,
      "oliere": 5054,
      "Ġnote": 5055,
      "Ġnotices": 5056,
      "ifth": 5057,
      "iffere": 5058,
      "essing": 5059,
      "ession": 5060,
      "ister": 5061,
      "isten": 5062,
      "istance": 5063,
      "istair": 5064,
      "elf": 5065,
      "elih": 5066,
      "elchman": 5067,
      "rais": 5068,
      "race": 5069,
      "rage": 5070,
      "raint": 5071,
      "ulse": 5072,
      "Ġmoves": 5073,
      "âĢĺ": 5074,
      "Ġsure": 5075,
      "Ġsupre": 5076,
      "Ġsucce": 5077,
      "Ġsuitable": 5078,
      "Ġsuicide": 5079,
      "bled": 5080,
      "ationality": 5081,
      "ĠGem": 5082,
      "ĠGast": 5083,
      "ĠGlossary": 5084,
      "ĠIbid": 5085,
      "Ġprone": 5086,
      "Ġprice": 5087,
      "Ġpromin": 5088,
      "Ġprior": 5089,
      "Ġvous": 5090,
      "Ġvag": 5091,
      "Ġvigor": 5092,
      "adv": 5093,
      "ades": 5094,
      "adel": 5095,
      "adays": 5096,
      "estly": 5097,
      "estion": 5098,
      "estam": 5099,
      "estant": 5100,
      "Ġweigh": 5101,
      "Ġweakening": 5102,
      "Ġexists": 5103,
      "Ġexpend": 5104,
      "Ġexcu": 5105,
      "Ġexternal": 5106,
      "Ġexoteric": 5107,
      "hter": 5108,
      "amp": 5109,
      "among": 5110,
      "mancip": 5111,
      "ush": 5112,
      "ussia": 5113,
      "ushed": 5114,
      "quest": 5115,
      "ousness": 5116,
      "ousseau": 5117,
      "cial": 5118,
      "Ġaband": 5119,
      "Ġabusing": 5120,
      "Ġabilities": 5121,
      "Ġruth": 5122,
      "Ġrip": 5123,
      "Ġrien": 5124,
      "Ġrational": 5125,
      "Ġriddle": 5126,
      "Ġrigor": 5127,
      "Ġromant": 5128,
      "Ġallies": 5129,
      "Ġalludes": 5130,
      "Ġdeed": 5131,
      "Ġdearly": 5132,
      "Ġdeals": 5133,
      "Ġdebas": 5134,
      "ains": 5135,
      "Ġnec": 5136,
      "Ġnemin": 5137,
      "ĠEl": 5138,
      "ĠEth": 5139,
      "ĠEven": 5140,
      "ĠEmp": 5141,
      "ĠEternal": 5142,
      "ĠEdu": 5143,
      "ante": 5144,
      "antages": 5145,
      "ĠBay": 5146,
      "ĠBra": 5147,
      "gend": 5148,
      "Ġpeac": 5149,
      "oods": 5150,
      "Ġdoors": 5151,
      "ched": 5152,
      "chetti": 5153,
      "Ġphrases": 5154,
      "ieux": 5155,
      "urer": 5156,
      "Ġfran": 5157,
      "Ġfruit": 5158,
      "ĠNation": 5159,
      "ĠNau": 5160,
      "ĠNach": 5161,
      "ĠNovel": 5162,
      "Ġatheism": 5163,
      "selfless": 5164,
      "Ġtrou": 5165,
      "Ġtries": 5166,
      "Ġtrick": 5167,
      "eming": 5168,
      "Ġintoler": 5169,
      "Ġintegr": 5170,
      "aster": 5171,
      "astic": 5172,
      "Ġcomical": 5173,
      "Ġcomment": 5174,
      "Ġcomplic": 5175,
      "resocratic": 5176,
      "respon": 5177,
      "pping": 5178,
      "pted": 5179,
      "ptics": 5180,
      "Ġworry": 5181,
      "schen": 5182,
      "Ġjoke": 5183,
      "Ġleap": 5184,
      "Ġleiden": 5185,
      "artmann": 5186,
      "ogists": 5187,
      "Ġspent": 5188,
      "Ġsprang": 5189,
      "Ġwhatso": 5190,
      "ĠWas": 5191,
      "ĠWomen": 5192,
      "ĠWorld": 5193,
      "ĠWilhelm": 5194,
      "ĠWelchman": 5195,
      "arding": 5196,
      "ĠNietzsches": 5197,
      "ots": 5198,
      "otestant": 5199,
      "Ġshar": 5200,
      "Ġshown": 5201,
      "Ġshines": 5202,
      "Ġshared": 5203,
      "Ġshape": 5204,
      "Ġshallow": 5205,
      "Thr": 5206,
      "Those": 5207,
      "Ġmechan": 5208,
      "ĠPsych": 5209,
      "ĠPho": 5210,
      "ĠPfort": 5211,
      "ĠPole": 5212,
      "ĠPasc": 5213,
      "ĠPresocratic": 5214,
      "udite": 5215,
      "Ġmann": 5216,
      "Ġmanage": 5217,
      "Ġmoralistic": 5218,
      "Ġprove": 5219,
      "Ġproven": 5220,
      "Ġprocla": 5221,
      "Ġproverbs": 5222,
      "Ġarise": 5223,
      "Ġanywhere": 5224,
      "ĠAb": 5225,
      "ĠAfter": 5226,
      "ĠAug": 5227,
      "ĠAny": 5228,
      "ĠAccording": 5229,
      "ĠAgain": 5230,
      "ĠThey": 5231,
      "reating": 5232,
      "Ġloose": 5233,
      "Ġlock": 5234,
      "Ġdisp": 5235,
      "Ġdisch": 5236,
      "Ġdissi": 5237,
      "Ġdispl": 5238,
      "Ġdisinterested": 5239,
      "Ġdisappoint": 5240,
      "Ġdishon": 5241,
      "known": 5242,
      "orts": 5243,
      "orted": 5244,
      "ortion": 5245,
      "ortunately": 5246,
      "ancement": 5247,
      "ĠSc": 5248,
      "ĠSp": 5249,
      "ĠSac": 5250,
      "ĠSens": 5251,
      "ĠSome": 5252,
      "ĠSacr": 5253,
      "Ġfeast": 5254,
      "Ġfears": 5255,
      "ected": 5256,
      "Ġprecious": 5257,
      "Ġprevious": 5258,
      "Ġpreface": 5259,
      "Ġpreached": 5260,
      "Ġprehist": 5261,
      "Ġpresto": 5262,
      "Ġpreferences": 5263,
      "Ġprelimin": 5264,
      "oken": 5265,
      "okol": 5266,
      "Ġqua": 5267,
      "Ġsomewhere": 5268,
      "Ġune": 5269,
      "Ġunm": 5270,
      "Ġunp": 5271,
      "Ġuns": 5272,
      "Ġunited": 5273,
      "Ġunwill": 5274,
      "Ġuniversity": 5275,
      "Ġunified": 5276,
      "Ġunique": 5277,
      "Ġunassuming": 5278,
      "Ġunhapp": 5279,
      "erior": 5280,
      "apable": 5281,
      "aphor": 5282,
      "Ġchance": 5283,
      "Ġchron": 5284,
      "Ġchosen": 5285,
      "acle": 5286,
      "Ġspiritedness": 5287,
      "orer": 5288,
      "une": 5289,
      "Ġknower": 5290,
      "Ġotherwise": 5291,
      "Ġenv": 5292,
      "Ġenvelop": 5293,
      "Ġenabled": 5294,
      "Ġenchant": 5295,
      "Ġengend": 5296,
      "Ġjustify": 5297,
      "Ġjustifies": 5298,
      "Ġjustification": 5299,
      "ffo": 5300,
      "Ġwhenever": 5301,
      "ĠHy": 5302,
      "ĠHis": 5303,
      "ĠHave": 5304,
      "ĠHume": 5305,
      "ĠHolder": 5306,
      "ĠHartmann": 5307,
      "Ġbelow": 5308,
      "Ġbeloved": 5309,
      "Ġbellw": 5310,
      "Ġconsciences": 5311,
      "intelligible": 5312,
      "Ġpersuade": 5313,
      "inkling": 5314,
      "Ġpolem": 5315,
      "Ġoverpower": 5316,
      "Ġstrang": 5317,
      "Ġstrives": 5318,
      "Ġstriving": 5319,
      "ager": 5320,
      "agon": 5321,
      "agli": 5322,
      "agnos": 5323,
      "Ġ213": 5324,
      "ĠFl": 5325,
      "ĠFla": 5326,
      "ĠFurther": 5327,
      "ĠMe": 5328,
      "ĠMat": 5329,
      "ĠMus": 5330,
      "ĠMore": 5331,
      "ĠMend": 5332,
      "ĠMitle": 5333,
      "ĠMyst": 5334,
      "ĠMoliere": 5335,
      "blood": 5336,
      "Ġresour": 5337,
      "Ġreserve": 5338,
      "Ġreserved": 5339,
      "Ġressent": 5340,
      "sohn": 5341,
      "solete": 5342,
      "ump": 5343,
      "umulated": 5344,
      "Instead": 5345,
      "tained": 5346,
      "Ġupwards": 5347,
      "aching": 5348,
      "iously": 5349,
      "ocal": 5350,
      "ĠCla": 5351,
      "ĠCause": 5352,
      "ĠCont": 5353,
      "ĠCatholic": 5354,
      "ĠCatil": 5355,
      "ĠCagli": 5356,
      "Ġagreement": 5357,
      "Ġoutside": 5358,
      "Ġsubj": 5359,
      "Ġsubord": 5360,
      "Ġsubmit": 5361,
      "Ġsubmiss": 5362,
      "rial": 5363,
      "rient": 5364,
      "Ġtruthful": 5365,
      "Ġtele": 5366,
      "Ġteeth": 5367,
      "Ġteeming": 5368,
      "Ġamour": 5369,
      "Ġambit": 5370,
      "Ġamusing": 5371,
      "Ġintoxic": 5372,
      "ressing": 5373,
      "ĠOb": 5374,
      "ĠOf": 5375,
      "ĠOther": 5376,
      "ĠOctober": 5377,
      "ĠOrient": 5378,
      "Ġposit": 5379,
      "Ġpositive": 5380,
      "ianism": 5381,
      "ostro": 5382,
      "ĠRits": 5383,
      "ĠRaymond": 5384,
      "ĠRussia": 5385,
      "Ġcares": 5386,
      "Ġcared": 5387,
      "izes": 5388,
      "izable": 5389,
      "Ġparts": 5390,
      "Ġparty": 5391,
      "Ġparties": 5392,
      "Ġpartisan": 5393,
      "Ġraging": 5394,
      "Ġrelates": 5395,
      "Ġrelatively": 5396,
      "Ġrelief": 5397,
      "ĠBeg": 5398,
      "Ġdeserve": 5399,
      "Ġdesigned": 5400,
      "abund": 5401,
      "abne": 5402,
      "absolute": 5403,
      "assinate": 5404,
      "ualism": 5405,
      "redients": 5406,
      "imely": 5407,
      "hatred": 5408,
      "ĠDer": 5409,
      "ĠDen": 5410,
      "ĠDider": 5411,
      "ĠDaniel": 5412,
      "ernal": 5413,
      "irty": 5414,
      "Ġadequ": 5415,
      "Ġindign": 5416,
      "Ġindiffere": 5417,
      "Ġfactors": 5418,
      "ĠTaking": 5419,
      "ĠTanner": 5420,
      "ĠTerrible": 5421,
      "ĠTaschen": 5422,
      "ĠTestam": 5423,
      "Ġaccumulated": 5424,
      "Ġvirtus": 5425,
      "Ġartic": 5426,
      "Ġapplied": 5427,
      "Ġapprais": 5428,
      "Ġclar": 5429,
      "Ġcloud": 5430,
      "Ġclosed": 5431,
      "Ġclimate": 5432,
      "Ġclerk": 5433,
      "asteful": 5434,
      "Ġreads": 5435,
      "Ġready": 5436,
      "nerable": 5437,
      "ruistic": 5438,
      "ructed": 5439,
      "Ġ80": 5440,
      "Ġ82": 5441,
      "Ġselves": 5442,
      "Ġseldom": 5443,
      "Ġperform": 5444,
      "Ġwherever": 5445,
      "Ġenters": 5446,
      "Ġentertain": 5447,
      "plus": 5448,
      "plished": 5449,
      "plification": 5450,
      "Ġspend": 5451,
      "standing": 5452,
      "Ġnewspap": 5453,
      "ĠLiter": 5454,
      "ĠLatin": 5455,
      "ĠLessing": 5456,
      "Ġobsolete": 5457,
      "Ġenduring": 5458,
      "Ġendurance": 5459,
      "Ġendowed": 5460,
      "Ġinclude": 5461,
      "Ġincrease": 5462,
      "Ġincapable": 5463,
      "Ġlooked": 5464,
      "type": 5465,
      "Ġactor": 5466,
      "Ġclair": 5467,
      "Ġimpatience": 5468,
      "Ġimpulse": 5469,
      "184": 5470,
      "1810": 5471,
      "endhal": 5472,
      "xtap": 5473,
      "Ġthoughtful": 5474,
      "Ġcharms": 5475,
      "Ġpresents": 5476,
      "Ġpresented": 5477,
      "Ġpreserves": 5478,
      "ificent": 5479,
      "ificance": 5480,
      "ifications": 5481,
      "Ġconsidering": 5482,
      "thest": 5483,
      "Ġwriter": 5484,
      "Ġwriting": 5485,
      "Ġhermit": 5486,
      "Ġattack": 5487,
      "Ġattitudes": 5488,
      "Ġtwenty": 5489,
      "Ġthrill": 5490,
      "Ġgoal": 5491,
      "Ġolder": 5492,
      "Ġoldest": 5493,
      "Ġrefute": 5494,
      "Ġrefuge": 5495,
      "Ġrefinement": 5496,
      "Ġremem": 5497,
      "Ġprofessor": 5498,
      "Ġawake": 5499,
      "Ġsuffered": 5500,
      "Ġsufficiently": 5501,
      "ĠKnowledge": 5502,
      "ĠKSB": 5503,
      "ĠKarl": 5504,
      "Ġfinish": 5505,
      "Ġinvention": 5506,
      "Ġinvisible": 5507,
      "Ġreligios": 5508,
      "gets": 5509,
      "ordial": 5510,
      "Ġdrop": 5511,
      "Ġorigins": 5512,
      "Ġviewed": 5513,
      "Ġdecay": 5514,
      "Ġdecla": 5515,
      "Ġdecide": 5516,
      "Ġdecreas": 5517,
      "Ġexperienced": 5518,
      "Ġplaced": 5519,
      "Ġplausi": 5520,
      "Ġmissing": 5521,
      "Ġunderstandable": 5522,
      "Ġ34": 5523,
      "Ġ35": 5524,
      "Ġ37": 5525,
      "Ġ39": 5526,
      "ĠJust": 5527,
      "ĠJose": 5528,
      "Ġinfer": 5529,
      "Ġinfection": 5530,
      "Ġinfinite": 5531,
      "Ġinfuri": 5532,
      "Ġseek": 5533,
      "Ġdiscoura": 5534,
      "erving": 5535,
      "Ġgetting": 5536,
      "Ġassured": 5537,
      "Ġassuming": 5538,
      "Ġassurance": 5539,
      "Ġassassinate": 5540,
      "Ġorderly": 5541,
      "Ġ152": 5542,
      "Ġ155": 5543,
      "Ġ159": 5544,
      "Ġtranslat": 5545,
      "Ġcrisis": 5546,
      "Ġmusical": 5547,
      "Ġmuscular": 5548,
      "arning": 5549,
      "Ġeloquent": 5550,
      "Ġformative": 5551,
      "Ġconceptions": 5552,
      "Ġ100": 5553,
      "iederke": 5554,
      "Ġ53": 5555,
      "Ġ54": 5556,
      "Ġ55": 5557,
      "Ġ56": 5558,
      "Ġacadem": 5559,
      "Ġacoust": 5560,
      "Ġsensitive": 5561,
      "Ġpsychic": 5562,
      "Ġforest": 5563,
      "Ġmatch": 5564,
      "erestingly": 5565,
      "ocrisy": 5566,
      "ocrats": 5567,
      "Ġregion": 5568,
      "Ġregions": 5569,
      "Ġstarts": 5570,
      "Ġstarting": 5571,
      "Ġexplos": 5572,
      "Ġ40": 5573,
      "Ġ44": 5574,
      "Ġ93": 5575,
      "Ġ94": 5576,
      "Ġ97": 5577,
      "Ġrecent": 5578,
      "Ġrecur": 5579,
      "Ġrecall": 5580,
      "Ġrecommend": 5581,
      "Ġfewer": 5582,
      "Ġinterpreter": 5583,
      "Ġscholarly": 5584,
      "Ġ60": 5585,
      "Ġ61": 5586,
      "Ġsurv": 5587,
      "Ġsurplus": 5588,
      "Ġplain": 5589,
      "Ġbring": 5590,
      "Ġbright": 5591,
      "Ġbrilliant": 5592,
      "Ġnowadays": 5593,
      "170": 5594,
      "176": 5595,
      "178": 5596,
      "1770": 5597,
      "aving": 5598,
      "berg": 5599,
      "Ġbackwards": 5600,
      "Ġlaede": 5601,
      "Ġdegrees": 5602,
      "ribution": 5603,
      "undamental": 5604,
      "Ġopposition": 5605,
      "Ġopposites": 5606,
      "Ġmusicians": 5607,
      "Ġinterpreted": 5608,
      "point": 5609,
      "Ġ71": 5610,
      "Ġ73": 5611,
      "Ġ75": 5612,
      "Ġsyst": 5613,
      "Ġsignificance": 5614,
      "Ġdouble": 5615,
      "Ġ181": 5616,
      "Ġworking": 5617,
      "164": 5618,
      "measure": 5619,
      "meaning": 5620,
      "Ġkilled": 5621,
      "Ġtalks": 5622,
      "Ġpasses": 5623,
      "Ġpassed": 5624,
      "Ġpassions": 5625,
      "Ġpassages": 5626,
      "Ġfundamen": 5627,
      "Ġmistakes": 5628,
      "Ġdetached": 5629,
      "Ġdetailed": 5630,
      "Ġgram": 5631,
      "Ġ160": 5632,
      "Ġ166": 5633,
      "Ġ167": 5634,
      "Ġruin": 5635,
      "Ġruined": 5636,
      "Ġruins": 5637,
      "Ġlearns": 5638,
      "Ġshortcom": 5639,
      "Ġjudges": 5640,
      "Ġjudging": 5641,
      "Ġtrad": 5642,
      "Ġtrained": 5643,
      "Ġtragic": 5644,
      "Ġcenter": 5645,
      "Ġcentral": 5646,
      "Ġcritic": 5647,
      "Ġmaybe": 5648,
      "Ġnatures": 5649,
      "Ġconflict": 5650,
      "Ġproposition": 5651,
      "Ġproportion": 5652,
      "Ġspiritualization": 5653,
      "Ġexpresses": 5654,
      "Ġexpressing": 5655,
      "Ġexpressions": 5656,
      "Ġimmoral": 5657,
      "Ġimmense": 5658,
      "Ġrarer": 5659,
      "Ġappearances": 5660,
      "Ġdoubted": 5661,
      "Ġhelped": 5662,
      "135": 5663,
      "155": 5664,
      "156": 5665,
      "cyon": 5666,
      "oyal": 5667,
      "oyed": 5668,
      "overing": 5669,
      "Ġillness": 5670,
      "Ġglossary": 5671,
      "Ġgloom": 5672,
      "Ġconvincing": 5673,
      "Ġconvinced": 5674,
      "Ġdoctor": 5675,
      "102": 5676,
      "106": 5677,
      "124": 5678,
      "126": 5679,
      "Ġerupt": 5680,
      "Ġerudite": 5681,
      "Ġderive": 5682,
      "Ġderiv": 5683,
      "Ġderived": 5684,
      "Ġdomination": 5685,
      "Ġdominance": 5686,
      "Ġreveals": 5687,
      "Ġoneself": 5688,
      "Ġhanding": 5689,
      "Ġhandful": 5690,
      "Ġexamination": 5691,
      "Ġabsence": 5692,
      "Ġdeeper": 5693,
      "Ġbeliefs": 5694,
      "Ġapproval": 5695,
      "prise": 5696,
      "ĠUltimately": 5697,
      "ission": 5698,
      "issim": 5699,
      "issensch": 5700,
      "Ġpainstaking": 5701,
      "Ġcreates": 5702,
      "Ġcreating": 5703,
      "Ġcreated": 5704,
      "Ġcreature": 5705,
      "Ġconceive": 5706,
      "Ġconceals": 5707,
      "ciousness": 5708,
      "Ġperspectives": 5709,
      "Ġperspectival": 5710,
      "Ġdecisions": 5711,
      "Ġmodernity": 5712,
      "146": 5713,
      "ucation": 5714,
      "Ġingredients": 5715,
      "ĠThat": 5716,
      "Ġslight": 5717,
      "Ġslugg": 5718,
      "Ġslaves": 5719,
      "Ġfamily": 5720,
      "Ġhybrid": 5721,
      "Ġmastery": 5722,
      "Ġdestined": 5723,
      "Ġdestructive": 5724,
      "Ġdestiny": 5725,
      "Ġguiding": 5726,
      "Ġ121": 5727,
      "Ġdevi": 5728,
      "Ġdevout": 5729,
      "Ġdevast": 5730,
      "Ġdevice": 5731,
      "Ġdevoid": 5732,
      "Ġinterested": 5733,
      "Ġfailures": 5734,
      "Ġarrived": 5735,
      "Ġarrival": 5736,
      "Ġcaused": 5737,
      "Ġcausation": 5738,
      "Ġadvoc": 5739,
      "190": 5740,
      "autions": 5741,
      "Ġscene": 5742,
      "Ġparable": 5743,
      "omena": 5744,
      "Ġ173": 5745,
      "Ġ175": 5746,
      "Ġexisted": 5747,
      "Ġdemocratic": 5748,
      "Ġnecessities": 5749,
      "Ġmeantime": 5750,
      "ĠHeine": 5751,
      "ĠHeinrich": 5752,
      "Ġgenuinely": 5753,
      "Ġdespised": 5754,
      "Ġidealist": 5755,
      "Ġhonorable": 5756,
      "luded": 5757,
      "pses": 5758,
      "posi": 5759,
      "Ġpursue": 5760,
      "Ġpuritan": 5761,
      "Ġfurthest": 5762,
      "Ġblame": 5763,
      "Ġblind": 5764,
      "Ġrepay": 5765,
      "Ġreputation": 5766,
      "etheless": 5767,
      "Ġstopped": 5768,
      "Ġphysics": 5769,
      "Ġphysicians": 5770,
      "Ġcomplex": 5771,
      "ĠPlatonic": 5772,
      "Ġchildish": 5773,
      "Ġpossesses": 5774,
      "Ġpossessing": 5775,
      "ruelty": 5776,
      "ĠSchopenhauerian": 5777,
      "Ġdifficulty": 5778,
      "obbes": 5779,
      "eningly": 5780,
      "Ġpraised": 5781,
      "Ġhalcyon": 5782,
      "Ġholds": 5783,
      "Ġholding": 5784,
      "Ġdrab": 5785,
      "Ġdrawn": 5786,
      "Ġdownwards": 5787,
      "Ġancients": 5788,
      "Ġproduct": 5789,
      "Ġproducts": 5790,
      "Ġdealings": 5791,
      "Ġnegate": 5792,
      "Ġnegative": 5793,
      "Ġneglect": 5794,
      "Ġeventual": 5795,
      "ĠStael": 5796,
      "ĠStendhal": 5797,
      "Ġpredetermined": 5798,
      "Ġadditional": 5799,
      "Ġaccounts": 5800,
      "Ġmethodological": 5801,
      "Ġmethodologically": 5802,
      "Ġconcerns": 5803,
      "Ġconcerning": 5804,
      "being": 5805,
      "conv": 5806,
      "cules": 5807,
      "forth": 5808,
      "Ġaffirm": 5809,
      "Ġaffirms": 5810,
      "Ġcountry": 5811,
      "Ġbreed": 5812,
      "Ġbreast": 5813,
      "Ġbreak": 5814,
      "Ġbites": 5815,
      "ariation": 5816,
      "Ġbeauty": 5817,
      "Ġdefinite": 5818,
      "ĠEverything": 5819,
      "Ġshowing": 5820,
      "Ġargument": 5821,
      "Ġtyrants": 5822,
      "Ġ208": 5823,
      "Ġ2000": 5824,
      "Ġclasses": 5825,
      "Ġclassical": 5826,
      "Ġclassics": 5827,
      "Ġinvolves": 5828,
      "Ġinvolved": 5829,
      "Ġmetaphysics": 5830,
      "Ġhypocrisy": 5831,
      "Ġperiods": 5832,
      "255": 5833,
      "liches": 5834,
      "suff": 5835,
      "tedly": 5836,
      "Ġknife": 5837,
      "Ġxxiv": 5838,
      "Ġxxvii": 5839,
      "Ġterrible": 5840,
      "Ġterribly": 5841,
      "Ġtreats": 5842,
      "Ġtreating": 5843,
      "Ġtells": 5844,
      "Ġtelling": 5845,
      "Ġwaits": 5846,
      "Ġcheap": 5847,
      "Ġcapr": 5848,
      "Ġfully": 5849,
      "Ġfalsity": 5850,
      "Ġfalsification": 5851,
      "Ġfalsifications": 5852,
      "Ġmainly": 5853,
      "Ġmaintained": 5854,
      "Ġinnov": 5855,
      "Ġdenied": 5856,
      "Ġdenounced": 5857,
      "Ġlaughter": 5858,
      "Ġsuperstition": 5859,
      "Ġprimordial": 5860,
      "Ġdeveloped": 5861,
      "Ġdogmatic": 5862,
      "Ġaristocracy": 5863,
      "Ġenjoys": 5864,
      "Ġobscure": 5865,
      "Ġmodesty": 5866,
      "Ġconstitution": 5867,
      "Ġconstitutes": 5868,
      "Ġforegrounds": 5869,
      "Ġexplanations": 5870,
      "Ġexplanatory": 5871,
      "Ġkinds": 5872,
      "248": 5873,
      "Ġfraud": 5874,
      "Ġgained": 5875,
      "ĠGeuss": 5876,
      "ĠGeorg": 5877,
      "Ġyear": 5878,
      "Ġdisguises": 5879,
      "Ġvalued": 5880,
      "Ġvaluable": 5881,
      "ĠJewish": 5882,
      "Ġsecretly": 5883,
      "Ġrecognized": 5884,
      "Ġsurpris": 5885,
      "Ġsurprised": 5886,
      "Ġ1885": 5887,
      "Ġ1888": 5888,
      "Ġproperty": 5889,
      "Ġfavorite": 5890,
      "Germans": 5891,
      "exam": 5892,
      "experi": 5893,
      "iberi": 5894,
      "Ġtempts": 5895,
      "Ġsounds": 5896,
      "Ġwarlike": 5897,
      "Ġwonders": 5898,
      "Ġpractice": 5899,
      "Ġflute": 5900,
      "Ġhoriz": 5901,
      "Ġhorrible": 5902,
      "Ġmasquer": 5903,
      "Ġboring": 5904,
      "Ġborrow": 5905,
      "Ġlimb": 5906,
      "Ġlineage": 5907,
      "Ġreaching": 5908,
      "Ġantiqu": 5909,
      "Ġconnection": 5910,
      "Ġsunk": 5911,
      "Ġvision": 5912,
      "Ġdeceiving": 5913,
      "Ġphysiology": 5914,
      "Ġworthiness": 5915,
      "Ġstrangely": 5916,
      "socio": 5917,
      "Ġgrounded": 5918,
      "Ġcleverly": 5919,
      "1881": 5920,
      "Ġpresentation": 5921,
      "Ġ1990": 5922,
      "Ġ1999": 5923,
      "Ġlaws": 5924,
      "Ġsimilarity": 5925,
      "Ġabsurdity": 5926,
      "Ġestablish": 5927,
      "Ġestablishing": 5928,
      "Ġdemands": 5929,
      "Ġenjoying": 5930,
      "Ġenjoyment": 5931,
      "Someone": 5932,
      "contradiction": 5933,
      "equality": 5934,
      "ihilism": 5935,
      "Ġverb": 5936,
      "Ġvertu": 5937,
      "Ġsolution": 5938,
      "Ġsolutions": 5939,
      "Ġsolitary": 5940,
      "Ġbuffo": 5941,
      "ometimes": 5942,
      "Ġlater": 5943,
      "Ġlargely": 5944,
      "Ġforgive": 5945,
      "Ġvarious": 5946,
      "Ġvariety": 5947,
      "Ġdepending": 5948,
      "Ġsexual": 5949,
      "Ġsexuality": 5950,
      "Ġcomprehensive": 5951,
      "ĠWillen": 5952,
      "ĠWilliam": 5953,
      "Ġpretty": 5954,
      "Ġpretend": 5955,
      "ĠHorace": 5956,
      "Ġconsisting": 5957,
      "Ġconsisted": 5958,
      "Ġconsistent": 5959,
      "Ġcontinue": 5960,
      "Ġcharming": 5961,
      "Ġemerge": 5962,
      "Ġreverent": 5963,
      "Ġmonstrous": 5964,
      "Ġcontrasting": 5965,
      "Ġdirected": 5966,
      "Ġdirectly": 5967,
      "Ġdogmatists": 5968,
      "Ġseduce": 5969,
      "Ġseduction": 5970,
      "cov": 5971,
      "spirited": 5972,
      "value": 5973,
      "Ġzur": 5974,
      "Ġsickly": 5975,
      "Ġtotality": 5976,
      "Ġtolerance": 5977,
      "Ġtolerable": 5978,
      "Ġfeminine": 5979,
      "Ġfemmina": 5980,
      "Ġmerits": 5981,
      "Ġbleak": 5982,
      "Ġdigging": 5983,
      "Ġluck": 5984,
      "Ġresting": 5985,
      "Ġrequirements": 5986,
      "Ġgeartet": 5987,
      "Ġsummer": 5988,
      "Ġpromot": 5989,
      "Ġpromised": 5990,
      "Ġprotect": 5991,
      "Ġabundantly": 5992,
      "Ġrunning": 5993,
      "Ġphilology": 5994,
      "Ġphilologist": 5995,
      "Ġspreads": 5996,
      "ĠPrussian": 5997,
      "ĠProtestant": 5998,
      "ĠProbably": 5999,
      "ĠProleg": 6000,
      "Ġdiseases": 6001,
      "Ġexperim": 6002,
      "Ġstriking": 6003,
      "Ġ257": 6004,
      "Ġcontempl": 6005,
      "Ġaccessible": 6006,
      "Ġclosest": 6007,
      "Ġinclination": 6008,
      "Ġincreasing": 6009,
      "Ġattributed": 6010,
      "Ġremains": 6011,
      "Ġdiscovered": 6012,
      "Ġacknowledge": 6013,
      "Ġpassionate": 6014,
      "Ġconcealment": 6015,
      "Ġsatisfied": 6016,
      "Ġmaliciously": 6017,
      "Ġenthusiasts": 6018,
      "Ġemphasized": 6019,
      "Ġpessimism": 6020,
      "Ġsolemnly": 6021,
      "Accordingly": 6022,
      "friend": 6023,
      "fathers": 6024,
      "fatherland": 6025,
      "temptation": 6026,
      "uitism": 6027,
      "Ġxvii": 6028,
      "Ġavail": 6029,
      "Ġastrology": 6030,
      "Ġodd": 6031,
      "Ġodds": 6032,
      "itanism": 6033,
      "Ġpotential": 6034,
      "Ġcoars": 6035,
      "Ġcoarse": 6036,
      "Ġtorn": 6037,
      "Ġtormented": 6038,
      "Ġfalls": 6039,
      "Ġminor": 6040,
      "Ġbeneath": 6041,
      "Ġdiverse": 6042,
      "Ġdiagnos": 6043,
      "Ġnarrowness": 6044,
      "Ġliars": 6045,
      "Ġlogical": 6046,
      "Ġlikeness": 6047,
      "Ġlikelih": 6048,
      "Ġassociation": 6049,
      "Ġmotion": 6050,
      "Ġmotives": 6051,
      "Ġvulnerable": 6052,
      "Ġexhausted": 6053,
      "Ġdocuments": 6054,
      "Ġfrightened": 6055,
      "Ġyouthfulness": 6056,
      "Ġcomfortable": 6057,
      "Ġlegis": 6058,
      "ĠWhoever": 6059,
      "Ġprepare": 6060,
      "Ġunreason": 6061,
      "Ġunrecogn": 6062,
      "ĠHowever": 6063,
      "enschliches": 6064,
      "Ġpoorly": 6065,
      "Ġpoisonous": 6066,
      "Ġ232": 6067,
      "Ġresponsible": 6068,
      "Ġcaptures": 6069,
      "Ġspeeches": 6070,
      "Ġemphat": 6071,
      "Ġempiricism": 6072,
      "Ġdiscovering": 6073,
      "Ġaccepts": 6074,
      "Ġsympathetic": 6075,
      "Ġcorrupted": 6076,
      "Ġcorrectly": 6077,
      "Ġcorrectness": 6078,
      "Ġslowly": 6079,
      "Ġguessed": 6080,
      "Ġarrogant": 6081,
      "Ġarrogance": 6082,
      "Ġrepresented": 6083,
      "Ġdraws": 6084,
      "Ġaddresses": 6085,
      "Ġinnocent": 6086,
      "perspective": 6087,
      "Ġbarbaric": 6088,
      "burg": 6089,
      "finden": 6090,
      "ftening": 6091,
      "justice": 6092,
      "while": 6093,
      "Ġtiming": 6094,
      "Ġaudience": 6095,
      "Ġwander": 6096,
      "Ġwandering": 6097,
      "Ġfootstep": 6098,
      "Ġhomeland": 6099,
      "Ġdamage": 6100,
      "Ġdressing": 6101,
      "iculously": 6102,
      "Ġisolation": 6103,
      "Ġisolated": 6104,
      "Ġepochs": 6105,
      "Ġnuance": 6106,
      "Ġnuances": 6107,
      "Ġnonetheless": 6108,
      "Ġbegets": 6109,
      "Ġrestricted": 6110,
      "Ġgrew": 6111,
      "Ġgreen": 6112,
      "Ġgesture": 6113,
      "Ġhesit": 6114,
      "elssohn": 6115,
      "Ġmoods": 6116,
      "Ġexcellent": 6117,
      "Ġexcellence": 6118,
      "Ġrhymes": 6119,
      "Ġrobust": 6120,
      "Ġdeception": 6121,
      "Ġdeceptive": 6122,
      "Ġcompliment": 6123,
      "ĠAdv": 6124,
      "ĠAlistair": 6125,
      "Ġdisagree": 6126,
      "Ġdisagreement": 6127,
      "Ġprevail": 6128,
      "Ġpreacher": 6129,
      "Ġpreachers": 6130,
      "Ġengag": 6131,
      "Ġengage": 6132,
      "ĠHercules": 6133,
      "ĠHistory": 6134,
      "ĠHistoria": 6135,
      "Ġoverwhelming": 6136,
      "Ġsubstance": 6137,
      "Ġvirtuously": 6138,
      "Ġobey": 6139,
      "Ġobeys": 6140,
      "ĠJesuitism": 6141,
      "Ġinformation": 6142,
      "philosophical": 6143,
      "Ġcriminal": 6144,
      "Ġcriminals": 6145,
      "Ġextravagant": 6146,
      "Ġextravagance": 6147,
      "Ġcultivated": 6148,
      "Ġadventurer": 6149,
      "Ġpurpose": 6150,
      "Ġpurports": 6151,
      "Ġmonster": 6152,
      "Ġmonsters": 6153,
      "Ġaffairs": 6154,
      "Ġpossibly": 6155,
      "Ġpossibilities": 6156,
      "Ġidentifies": 6157,
      "Ġoccasional": 6158,
      "Ġoccasionally": 6159,
      "Ġmasculine": 6160,
      "Ġmasculinity": 6161,
      "Ġevaluate": 6162,
      "Ġevaluations": 6163,
      "Ġcomprehended": 6164,
      "ĠDeutscher": 6165,
      "Ġobligations": 6166,
      "Ġcustoms": 6167,
      "Ġfantasies": 6168,
      "Ġvivisect": 6169,
      "Ġvivisection": 6170,
      "Ġjealousy": 6171,
      "Ġembarrassing": 6172,
      "Ġembarrassed": 6173,
      "Interestingly": 6174,
      "Nehemas": 6175,
      "kritik": 6176,
      "psychological": 6177,
      "witness": 6178,
      "Ġachieve": 6179,
      "Ġsaga": 6180,
      "itiva": 6181,
      "Ġpermissible": 6182,
      "Ġcitadel": 6183,
      "Ġhoping": 6184,
      "Ġhostility": 6185,
      "Ġmadness": 6186,
      "Ġbreath": 6187,
      "Ġbinds": 6188,
      "Ġburning": 6189,
      "Ġbiographical": 6190,
      "Ġdormitiva": 6191,
      "Ġethics": 6192,
      "Ġeffort": 6193,
      "Ġeternally": 6194,
      "Ġladder": 6195,
      "Ġrepeat": 6196,
      "Ġrelax": 6197,
      "Ġreversal": 6198,
      "Ġnobler": 6199,
      "Ġhenceforth": 6200,
      "Ġaltruistic": 6201,
      "Ġannoyed": 6202,
      "Ġmockery": 6203,
      "ĠIdols": 6204,
      "Ġweaknesses": 6205,
      "Ġranging": 6206,
      "Ġrooted": 6207,
      "Ġcombined": 6208,
      "Ġjuxtap": 6209,
      "Ġspoiled": 6210,
      "ĠWherever": 6211,
      "ĠPreface": 6212,
      "ĠPuritanism": 6213,
      "Ġdisorder": 6214,
      "Ġdissect": 6215,
      "ĠSwiss": 6216,
      "Ġprecautions": 6217,
      "Ġchristened": 6218,
      "Ġenemies": 6219,
      "Ġenlightenment": 6220,
      "Ġstructure": 6221,
      "ĠCompared": 6222,
      "Ġsource": 6223,
      "Ġinstitutional": 6224,
      "Ġteacher": 6225,
      "Ġgratitude": 6226,
      "Ġrapidly": 6227,
      "Ġrandomness": 6228,
      "Ġdesperate": 6229,
      "Ġindispens": 6230,
      "ĠTwilight": 6231,
      "Ġaccomplished": 6232,
      "Ġaccurate": 6233,
      "Ġapplication": 6234,
      "Ġappointed": 6235,
      "Ġclumsy": 6236,
      "Ġincompre": 6237,
      "Ġbetrayed": 6238,
      "Ġimperfect": 6239,
      "Ġoppressed": 6240,
      "Ġcondemned": 6241,
      "Ġreminder": 6242,
      "Ġinvaluable": 6243,
      "Ġdistrustful": 6244,
      "Ġembrace": 6245,
      "Ġmisleading": 6246,
      "Ġmischievous": 6247,
      "ĠJudith": 6248,
      "Ġcompensation": 6249,
      "Ġassertion": 6250,
      "Ġtransfigure": 6251,
      "Ġcruder": 6252,
      "ĠFranco": 6253,
      "Ġuncertainty": 6254,
      "Ġpropagating": 6255,
      "Ġerrone": 6256,
      "ĠUntimely": 6257,
      "Ġadmirable": 6258,
      "Ġscenario": 6259,
      "Ġparadoxical": 6260,
      "Ġmaxims": 6261,
      "Ġcontradictory": 6262,
      "neighbor": 6263,
      "Ġlabyrinths": 6264,
      "Ġencouraged": 6265,
      "Ġcontinuing": 6266,
      "probleme": 6267,
      "Ġmagnificent": 6268,
      "Ġluxury": 6269,
      "Ġrelationships": 6270,
      "ĠDionysus": 6271,
      "Ġbenevolence": 6272,
      "Ġreviews": 6273,
      "ĠGrundprobleme": 6274,
      "Ġarchitectonic": 6275,
      "ĠMeditations": 6276,
      "Ġdescriptive": 6277,
      "Ġmetaphors": 6278,
      "Ġsophisticated": 6279,
      "Ġpeculiarities": 6280,
      "Ġdisintegration": 6281,
      "Ġdesinteresse": 6282,
      "Ġaccompanies": 6283,
      ",âĢĻ'": 6284,
      "Among": 6285,
      "Anglo": 6286,
      "American": 6287,
      "Basically": 6288,
      "Difference": 6289,
      "France": 6290,
      "Granted": 6291,
      "Hanser": 6292,
      "Religion": 6293,
      "Skepticism": 6294,
      "Vintage": 6295,
      "Writes": 6296,
      "century": 6297,
      "causal": 6298,
      "homme": 6299,
      "patriots": 6300,
      "solution": 6301,
      "Ġicy": 6302,
      "Ġtasks": 6303,
      "Ġtartuff": 6304,
      "hearted": 6305,
      "Ġsaber": 6306,
      "Ġoffered": 6307,
      "Ġponderous": 6308,
      "Ġpageant": 6309,
      "Ġpertaining": 6310,
      "Ġpatriotic": 6311,
      "Ġcateg": 6312,
      "Ġcensure": 6313,
      "Ġfanat": 6314,
      "Ġfasting": 6315,
      "Ġfellow": 6316,
      "Ġfascination": 6317,
      "Ġhomines": 6318,
      "Ġmorally": 6319,
      "Ġmildly": 6320,
      "Ġmelancholy": 6321,
      "Ġbodies": 6322,
      "Ġbrittle": 6323,
      "Ġbiography": 6324,
      "Ġinsofar": 6325,
      "Ġdiaries": 6326,
      "Ġecho": 6327,
      "Ġelabor": 6328,
      "Ġecstasy": 6329,
      "Ġnourish": 6330,
      "Ġnervous": 6331,
      "Ġnonsense": 6332,
      "ethoven": 6333,
      "immediate": 6334,
      "Ġheredity": 6335,
      "Ġangry": 6336,
      "Ġanticip": 6337,
      "Ġancestors": 6338,
      "Ġstinks": 6339,
      "Ġconversation": 6340,
      "Ġsucceed": 6341,
      "Ġpriori": 6342,
      "Ġvague": 6343,
      "Ġexcuse": 6344,
      "mancipation": 6345,
      "Ġruthless": 6346,
      "Ġrationalism": 6347,
      "Ġromanticism": 6348,
      "Ġneminem": 6349,
      "ĠEduard": 6350,
      "Ġintegrating": 6351,
      "Ġcomplicated": 6352,
      "Ġwhatsoever": 6353,
      "ĠPhoen": 6354,
      "ĠPforta": 6355,
      "ĠPascal": 6356,
      "Ġproclaim": 6357,
      "ĠAugust": 6358,
      "Ġdissip": 6359,
      "Ġdisappointments": 6360,
      "ĠSacchetti": 6361,
      "ĠSomeone": 6362,
      "ĠSacrifice": 6363,
      "Ġpreliminary": 6364,
      "Ġunhappy": 6365,
      "ĠHolderlin": 6366,
      "Ġbellwether": 6367,
      "Ġpolemical": 6368,
      "Ġstrangest": 6369,
      "ĠMendelssohn": 6370,
      "Ġressentiment": 6371,
      "ĠContradiction": 6372,
      "ĠCatilina": 6373,
      "ĠCagliostro": 6374,
      "Ġambitious": 6375,
      "ĠRitschl": 6376,
      "abneg": 6377,
      "ĠDiderot": 6378,
      "Ġindignation": 6379,
      "Ġindifferent": 6380,
      "ĠTaschenbuch": 6381,
      "ĠTestament": 6382,
      "Ġclouds": 6383,
      "Ġreligiosi": 6384,
      "Ġplausibility": 6385,
      "Ġdiscouraging": 6386,
      "Ġtranslator": 6387,
      "Ġacademic": 6388,
      "Ġacoustic": 6389,
      "Ġshortcomings": 6390,
      "Ġconflicting": 6391,
      "issenscha": 6392,
      "Ġsluggish": 6393,
      "Ġmasquerade": 6394,
      "ĠProlegomena": 6395,
      "Ġdiagnosis": 6396,
      "Ġlikelihood": 6397,
      "Ġunrecognizable": 6398,
      "Ġfootsteps": 6399,
      "ĠHistoriae": 6400,
      "Ġinstitutionalized": 6401,
      "Ġindispensable": 6402
    },
    "merges": [
      "Ġ t",
      "Ġ a",
      "h e",
      "i n",
      "Ġ o",
      "Ġt he",
      "r e",
      "i s",
      "Ġ s",
      "n d",
      "Ġ w",
      "e r",
      "i t",
      "a t",
      "o n",
      "Ġ \"",
      "e n",
      "Ġo f",
      "e s",
      "Ġ p",
      "Ġ c",
      "Ġt o",
      "Ġ f",
      "Ġ h",
      "Ġ m",
      "Ġa nd",
      "o r",
      "Ġ b",
      "Ġt h",
      "a n",
      "o u",
      "in g",
      "a l",
      "Ġ in",
      "Ġ d",
      "l e",
      "e d",
      "s t",
      "i c",
      "a r",
      "Ġ is",
      "Ġ e",
      "Ġ n",
      "l y",
      "o m",
      "i l",
      "i on",
      "s e",
      "Ġb e",
      "Ġ l",
      "v e",
      "a s",
      "Ġ it",
      "Ġth at",
      "Ġ '",
      "c e",
      "c t",
      "Ġ re",
      "en t",
      "Ġw h",
      "Ġ g",
      "Ġn o",
      "u t",
      "o p",
      "v er",
      "e t",
      "i m",
      "Ġa s",
      "Ġf or",
      "o w",
      "Ġ u",
      "i r",
      "Ġ he",
      "i g",
      "Ġa l",
      "Ġa n",
      "Ġ -",
      "Ġo n",
      "o d",
      "Ġs t",
      "he r",
      "c h",
      "Ġh a",
      "u r",
      "a y",
      "it y",
      "o s",
      "it h",
      "il l",
      "i d",
      "Ġc on",
      "Ġth is",
      "o l",
      "Ġno t",
      "i f",
      "es s",
      "is t",
      "Ġw ith",
      "e l",
      "r a",
      "Ġa re",
      "u l",
      "Ġm o",
      "Ġo r",
      "T he",
      "â Ģ",
      "Ġs u",
      "k e",
      "p e",
      "Ġh is",
      "Ġ (",
      "b le",
      "at ion",
      "Ġ G",
      "Ġ I",
      "Ġp r",
      "l d",
      "Ġ v",
      "se l",
      "Ġha ve",
      "t h",
      "a d",
      "es t",
      "Ġ 1",
      "Ġw e",
      "Ġe x",
      "âĢ Ļ",
      "h t",
      "Ġw ill",
      "a m",
      "m an",
      "at e",
      "u s",
      "q u",
      "ou s",
      "Ġwh o",
      "c i",
      "Ġa b",
      "ver y",
      "Ġ r",
      "Ġal l",
      "i ve",
      "Ġd e",
      "ic h",
      "u st",
      "a in",
      "Ġn e",
      "er s",
      "Ġ E",
      "an t",
      "Ġ B",
      "g e",
      "i v",
      "Ġ y",
      "Ġp e",
      "o od",
      "Ġs om",
      "Ġd o",
      "c he",
      "Ġp h",
      "i e",
      "Ġh as",
      "Ġthe y",
      "u re",
      "ou t",
      "ou ld",
      "Ġs e",
      "Ġf r",
      "ig ht",
      "Ġe v",
      "op le",
      "Ġ N",
      "Ġa t",
      "sel f",
      "Ġt r",
      "e m",
      "n t",
      "Ġy ou",
      "Ġ\" '",
      "ou g",
      "al ly",
      "Ġin t",
      "a nd",
      "Ġthe m",
      "en ce",
      "Ġpe ople",
      "Ġw he",
      "il os",
      "a st",
      "t her",
      "Ġc om",
      "re s",
      "p p",
      "on g",
      "i et",
      "p t",
      "ilos op",
      "o nd",
      "Ġwh ich",
      "Ġw or",
      "or al",
      "Ġmo re",
      "s che",
      "Ġ j",
      "Ġ le",
      "Ġph ilosop",
      "z sche",
      "Ġs o",
      "ar t",
      "iet zsche",
      "o g",
      "Ġs p",
      "Ġfr om",
      "e re",
      "Ġwh at",
      "Ġab out",
      "Ġh im",
      "Ġ W",
      "ing s",
      "ar d",
      "ĠN ietzsche",
      "i es",
      "o t",
      "Ġc an",
      "k n",
      "Ġthe re",
      "Ġthe ir",
      "Ġs h",
      "T h",
      "Ġb y",
      "l a",
      "Ġm e",
      "Ġ P",
      "Ġf a",
      "u d",
      "Ġ Ġ",
      "Ġm an",
      "Ġm oral",
      "ic al",
      "Ġpr o",
      "Ġw as",
      "Ġev en",
      "Ġa r",
      "ou nd",
      "Ġan y",
      "oug h",
      "i ke",
      "Ġu s",
      "a k",
      "v es",
      "Ġ A",
      "Ġ The",
      "re at",
      "Ġit s",
      "h ing",
      "Ġl o",
      "Ġmo st",
      "Ġe very",
      "ion s",
      "Ġd is",
      "er man",
      "an s",
      "Ġon ly",
      "kn ow",
      "or t",
      "an ce",
      "Ġ S",
      "Ġf e",
      "a u",
      "e ct",
      "m ent",
      "Ġthe se",
      "Ġp re",
      "am e",
      "o k",
      "t er",
      "Ġ qu",
      "ir it",
      "Ġsom e",
      "Ġo ur",
      "Ġu n",
      "ĠG erman",
      ", '",
      "on e",
      "u e",
      "ut h",
      "er i",
      "a p",
      "Ġc h",
      "Ġl ike",
      "Ġon e",
      "a c",
      "a ble",
      "in d",
      "ay s",
      "Ġsp irit",
      "n ess",
      "o re",
      "u n",
      "Ġ know",
      "Ġo ther",
      "nd er",
      "el l",
      "Ġex p",
      "Ġ en",
      "is m",
      "Ġb ut",
      "Ġj ust",
      "le d",
      "I t",
      "c c",
      "f f",
      "Ġt y",
      "in e",
      "Ġh ow",
      "Ġw ould",
      "id e",
      "Ġwhe n",
      "Ġ H",
      "Ġbe l",
      "Ġbe en",
      "f ul",
      "Ġcon s",
      "Th is",
      "a ke",
      "u ch",
      "in t",
      "Ġp ers",
      "Ġbe c",
      "if e",
      "in k",
      "h y",
      "s i",
      "ol og",
      "Ġphilosop her",
      "Ġg ood",
      "Ġsom et",
      "Ġ im",
      "en s",
      "Ġp o",
      "ul t",
      "Ġo ver",
      "re e",
      "Ġit self",
      "Ġst r",
      "pe ct",
      "a g",
      "r it",
      "Ġ 2",
      "Ġ F",
      "Ġ M",
      "ct ion",
      ") \"",
      "b l",
      "er m",
      "sel ves",
      "Ġl ife",
      "Ġw ant",
      "Ġre s",
      "Ġ ,",
      "ar s",
      "s o",
      "u m",
      "Ġ if",
      "Ġsomet hing",
      "I n",
      "i re",
      "t ain",
      "u man",
      "at ed",
      "Ġu p",
      "a ch",
      "i ous",
      "o c",
      "Ġ C",
      "Ġa g",
      "Ġo ut",
      "Ġs ou",
      "Ġg reat",
      "Ġu nder",
      "Ġsu b",
      "Ġ very",
      "is e",
      "au se",
      "Ġm uch",
      "an g",
      "Ġne ed",
      "r i",
      "Ġth ings",
      "Ġin st",
      "Ġg en",
      "Ġtr uth",
      "c es",
      "Ġt e",
      "Ġa m",
      "Ġg r",
      "Ġth an",
      "Ġth ink",
      "Ġv al",
      "Ġint o",
      "res s",
      "Ġty pe",
      "Ġpers on",
      "Ġsou l",
      "y ond",
      "al l",
      "f ere",
      "n g",
      "v il",
      "Ġ O",
      "Ġw ell",
      "Ġp os",
      "Ġhim self",
      "e p",
      "i an",
      "o st",
      "Ġ R",
      "Ġw ay",
      "Ġc a",
      "Ġh ig",
      "i z",
      "r o",
      "Ġw om",
      "Ġ\" -",
      "Ġto o",
      "Ġsu ch",
      "Ġmoral ity",
      "o se",
      "Ġp art",
      "Ġb o",
      "ce pt",
      "ation s",
      "p le",
      "Ġ ra",
      "it ion",
      "Ġre l",
      "ĠG ood",
      "ĠB e",
      "Ġs ay",
      "ic e",
      "Ġcon t",
      "th ing",
      "u es",
      "or y",
      "Ġd es",
      "Ġd if",
      "B ut",
      "a b",
      "as s",
      "ci ence",
      "ĠE vil",
      "Ġfe el",
      "Ġbel ie",
      "a ge",
      "k s",
      "u al",
      "re d",
      "is h",
      "op e",
      "im e",
      "ow er",
      "ir st",
      "Ġdo es",
      "Ġag ain",
      "h at",
      "u nd",
      "Ġ D",
      "er n",
      "ir t",
      "G E",
      "en se",
      "om e",
      "Ġst ill",
      "Ġse em",
      "Ġa d",
      "er tain",
      "Ġm ight",
      "Ġin d",
      "il ity",
      "Ġthem selves",
      "Ġfa ct",
      "a ct",
      "Ġ T",
      "Ġa cc",
      "ar y",
      "Ġal so",
      "Ġv irt",
      "Ġar t",
      "ĠBe yond",
      "j ect",
      "Ġa pp",
      "is he",
      "Ġc l",
      "Ġh uman",
      "ou r",
      "ur ope",
      "ĠB GE",
      "ast e",
      "Ġt erm",
      "Ġre ad",
      "iv es",
      "A nd",
      "n er",
      "r u",
      "t le",
      "w ard",
      "Ġ 8",
      "Ġs el",
      "it e",
      "at es",
      "Ġp er",
      "ĠE urope",
      "Ġwhe re",
      "m ost",
      "Ġ ent",
      "in ct",
      "at h",
      "Ġm y",
      "Ġr ight",
      "ap s",
      "Ġpo int",
      ") ,",
      "h aps",
      "p l",
      "Ġ V",
      "Ġs pe",
      "at her",
      "Ġf irst",
      "st and",
      "Ġbe ing",
      "Ġne w",
      "oug ht",
      "Ġ L",
      "Ġo b",
      "Ġs ame",
      "Ġp ower",
      "ic t",
      "Ġe nd",
      "ig n",
      "Ġha d",
      "Ġsh ould",
      "Ġlo ve",
      "ac k",
      "Ġbec ause",
      "w ays",
      "in ed",
      "at ure",
      "Ġl ong",
      "as on",
      "Ġno ble",
      "ĠI n",
      "Ġme ans",
      "Ġsel f",
      "he n",
      "Ġc ould",
      "Ġin c",
      "Ġal ways",
      "Ġwe re",
      "Ġlo ok",
      "Ġphilosopher s",
      "Ġ âĢ",
      "Ġ ide",
      "Ġt aste",
      "Ġc le",
      "Ġf ind",
      "or m",
      "ic s",
      "Ġbe t",
      "Ġre ason",
      "od u",
      "ist s",
      "Ġyou r",
      "Ġman y",
      "Ġdif fere",
      "t y",
      "u bl",
      "w n",
      "Ġa ct",
      "Ġc la",
      "Ġc ertain",
      "ou nt",
      "Ġal most",
      "ate ly",
      "Ġim p",
      "1 8",
      "d er",
      "e nd",
      "t en",
      "x t",
      "Ġs ort",
      "Ġs ense",
      "Ġf ar",
      "Ġb ad",
      "Ġth ought",
      "Ġin s",
      "Ġwor d",
      "Ġle t",
      "Ġqu est",
      "Ġch ar",
      "Ġgen er",
      "H e",
      "p re",
      "s y",
      "Ġt ime",
      "on t",
      "Ġp res",
      "ent ly",
      "if ic",
      "Ġen ough",
      "Ġcons id",
      "si ble",
      "Ġinst inct",
      "Ġwom en",
      "Ġbo ok",
      "Ġcla im",
      "W e",
      "e ver",
      "f ore",
      "m s",
      "t he",
      "Ġa p",
      "Ġthe n",
      "Ġw rit",
      "Ġd ang",
      "ed i",
      "Ġhe r",
      "ol l",
      "ie w",
      "Ġat t",
      "ak es",
      "o ve",
      "v en",
      "Ġt w",
      "Ġo wn",
      "Ġm ake",
      "Ġth r",
      "Ġg o",
      "ver s",
      "ĠI t",
      "Ġphilosop hy",
      "e w",
      "i al",
      "Ġo ld",
      "Ġo pp",
      "Ġc ond",
      "Ġh on",
      "Ġb est",
      "Ġre f",
      "Ġre m",
      "Ġint er",
      "Ġwor ld",
      "Ġpro f",
      "ment s",
      "i ly",
      "Ġa w",
      "Ġs ch",
      "it ies",
      "Ġth ing",
      "ig in",
      "Ġsu ff",
      "Ġcom m",
      "Ġseem s",
      "c ed",
      "c ess",
      "n ot",
      "y s",
      "Ġ K",
      "re ad",
      "Ġf in",
      "or s",
      "Ġth ose",
      "Ġin v",
      "Ġd ist",
      "Ġre ally",
      "Ġha pp",
      "ist ic",
      "Ġwith out",
      "Ġstr ong",
      "Ġrel ig",
      "ward s",
      "Ġper haps",
      "Ġdiffere nt",
      "a id",
      "g et",
      "i le",
      "n ce",
      "Ġt ake",
      "or d",
      "Ġd r",
      "Ġe m",
      "Ġor igin",
      "Ġv iew",
      "ad e",
      "Ġ1 9",
      "Ġde c",
      "Ġexp eri",
      "Ġval ue",
      "Ġagain st",
      "sy ch",
      "l ess",
      "r ist",
      "w e",
      "Ġo p",
      "nd s",
      "Ġp la",
      "Ġm is",
      "Ġm et",
      "Ġm ust",
      "ar ly",
      "Ġe ach",
      "Ġl it",
      "Ġre al",
      "od y",
      "ol d",
      "em pt",
      "Ġunder stand",
      "Ġdang er",
      "Ġtw o",
      "a re",
      "g r",
      "Â §",
      "Ġ 3",
      "Ġ J",
      "in ce",
      "it s",
      "Ġf ound",
      "Ġm od",
      "al s",
      "Ġin f",
      "Ġse c",
      "Ġse e",
      "Ġcom p",
      "Ġpro ble",
      "Ġevery thing",
      "Ġdis c",
      "d ay",
      "p h",
      "r odu",
      "er v",
      "Ġc all",
      "Ġm en",
      "Ġd ays",
      "ve l",
      "Ġg et",
      "Ġas s",
      "Ġnot hing",
      "Ġor der",
      "Ġ1 5",
      "ci ent",
      "Ġtr ans",
      "ff ect",
      "Ġcons cience",
      "olog y",
      "olog ical",
      "Ġquest ion",
      "Ġ ke",
      "in ess",
      "er ing",
      "at ing",
      "Ġc r",
      "Ġh ist",
      "Ġm us",
      "ar n",
      "Ġe l",
      "Ġfor m",
      "Ġhe re",
      "Ġcon st",
      "Ġcon cept",
      "Ġ1 0",
      "Ġex t",
      "Ġne ver",
      "Ġso ci",
      "ak ing",
      "Ġwant s",
      "Ġhig her",
      "ĠâĢ Ķ",
      "ubl ishe",
      "f ter",
      "i ed",
      "l l",
      "t o",
      "Ġ 5",
      "Ġa c",
      "Ġs ens",
      "Ġof f",
      "Ġp le",
      "Ġp ut",
      "Ġp sych",
      "Ġf ore",
      "Ġm at",
      "ow s",
      "Ġst u",
      "Ġst and",
      "The re",
      "Ġwho se",
      "ere st",
      "oc r",
      "Ġsub tle",
      "ng l",
      "Ġpos sible",
      "Ġvirt ues",
      "Ġchar act",
      "Ġs aid",
      "it ed",
      "Ġc ult",
      "Ġh ard",
      "Ġm akes",
      "al led",
      "ic ally",
      "ic ism",
      "Ġe as",
      "Ġre g",
      "Ġal read",
      "Ġst art",
      "ĠG od",
      "Ġr an",
      "Ġj ud",
      "Ġcan not",
      "Ġme an",
      "ud e",
      "Ġexp l",
      "led ge",
      "Ġneed s",
      "Ġap pe",
      "Ġthr ough",
      "Ġalread y",
      "O n",
      "c ise",
      "d en",
      "Ġ 4",
      "Ġ 9",
      "Ġ ed",
      "Ġ This",
      "he re",
      "it ions",
      "Ġe y",
      "il d",
      "Ġre c",
      "ent s",
      "ent ion",
      "ow n",
      "The y",
      "qu ently",
      "ĠE ngl",
      "iv ing",
      "Ġfe w",
      "Ġour selves",
      "eri ous",
      "Ġbel ong",
      "Ġres pect",
      "ĠC h",
      "Ġconsid er",
      "Ġinter pre",
      "Ġprof ound",
      "Ġsch ol",
      "we en",
      "b ility",
      "g u",
      "i p",
      "l at",
      "u ally",
      "w ill",
      "Ġ 6",
      "Ġa ge",
      "Ġa fter",
      "Ġs ur",
      "at ic",
      "en ces",
      "Ġof ten",
      "Ġp l",
      "Ġto day",
      "Ġb r",
      "ic k",
      "om in",
      "ent al",
      "Ġwh y",
      "Ġno w",
      "Ġu se",
      "ur n",
      "Ġcon c",
      "ra ct",
      "ul ar",
      "nt rodu",
      "Ġterm s",
      "Ġke ep",
      "ĠEngl ish",
      "1 7",
      "a v",
      "a se",
      "b t",
      "b er",
      "v ed",
      "Ġ ess",
      "in s",
      "at ive",
      "Ġto wards",
      "Ġf re",
      "Ġm ade",
      "Ġb as",
      "Ġb ack",
      "ar k",
      "Ġbe g",
      "Ġbe fore",
      "Ġl a",
      "Ġu nt",
      "Ġst re",
      "Ġst ate",
      "os s",
      "Ġde g",
      "iv en",
      "Ġwhe ther",
      "ĠW ag",
      "ĠThe re",
      "Ġbec ome",
      "ĠF r",
      "ri b",
      "Ġwom an",
      "und am",
      "Ġbet ween",
      "Ġopp os",
      "Ġdanger ous",
      "Ġmus ic",
      "Ġel se",
      "Ġinterpre t",
      "ntrodu ction",
      "c k",
      "g ed",
      "h ich",
      "i us",
      "p o",
      "u g",
      "Ġ 7",
      "Ġs y",
      "Ġs ign",
      "Ġp ity",
      "Ġf ree",
      "Ġd ou",
      "le ct",
      "st r",
      "Ġe ar",
      "as k",
      "as ure",
      "Ġg ives",
      "ut ion",
      "Ġhe art",
      "Ġ1 8",
      "Ġwor k",
      "Ġphilosop h",
      "Ġun c",
      "Ġte xt",
      "Ġval ues",
      "Ġhig h",
      "Ġide as",
      "Ġword s",
      "Ġgener al",
      "Ġcharact er",
      "ĠWag ner",
      "1 6",
      "Z ar",
      "b ody",
      "l in",
      "l es",
      "m e",
      "p ic",
      "p id",
      "v ing",
      "Ġ k",
      "Ġ es",
      "Ġt al",
      "re n",
      "Ġs im",
      "Ġs erious",
      "Ġp ass",
      "Ġf oll",
      "Ġf undam",
      "Ġm ist",
      "al ity",
      "Ġd et",
      "Ġe ver",
      "Ġg ra",
      "im es",
      "Ġhe l",
      "Ġon ce",
      "pe nd",
      "ĠI ntroduction",
      "Ġ1 6",
      "Ġex cept",
      "Ġwho le",
      "Ġab ove",
      "Ġr u",
      "ust ra",
      "ie ce",
      "Ġtr y",
      "Ġtr ue",
      "Ġcom e",
      "Ġle arn",
      "Ġsh ort",
      "Ġsub ject",
      "Ġbo th",
      "Ġfeel ing",
      "Ġbook s",
      "Ġtrans l",
      "Ġjud g",
      "cise ly",
      "Ġstre ng",
      "b ar",
      "f ic",
      "i i",
      "i ans",
      "l t",
      "Ġ ut",
      "Ġ Â§",
      "Ġ Zar",
      "Ġt ra",
      "Ġc ent",
      "Ġc rit",
      "Ġc alled",
      "Ġm ay",
      "Ġn ature",
      "Ġl ess",
      "as es",
      "Ġcon f",
      "Ġcon se",
      "ke pt",
      "Ġpr op",
      "Ġr ather",
      "Ġwor ks",
      "ĠW hat",
      "Ġpre cisely",
      "Ġqu ite",
      "Ġspirit ual",
      "Ġexp ress",
      "cc ess",
      "Ġim m",
      "Ġca se",
      "Ġpart ic",
      "Ġra re",
      "Ġbelie ve",
      "ath ustra",
      "ord ing",
      "Ġappe ar",
      "ĠCh rist",
      "Ġdou bt",
      "Ġhel p",
      "Ġstreng th",
      "lt im",
      "1 3",
      "1 5",
      "W hat",
      "a ce",
      "c y",
      "g ood",
      "i k",
      "o y",
      "o ver",
      "t e",
      "t ing",
      "Ġ Y",
      "Ġ ill",
      "Ġa uth",
      "he s",
      "in ci",
      "Ġs cience",
      "Ġc or",
      "Ġd id",
      "Ġl ast",
      "Ġl ack",
      "Ġg l",
      "Ġg od",
      "ur al",
      "Ġcon v",
      "ĠB ut",
      "Ġdo ct",
      "Ġle ast",
      "ak en",
      "ĠA nd",
      "Ġthink ing",
      "Ġind e",
      "Ġaw ay",
      "Ġlit tle",
      "gr ound",
      "Ġproble m",
      "ublishe s",
      "ĠZar athustra",
      "1 0",
      "1 2",
      "B e",
      "a che",
      "p er",
      "x x",
      "Ġ er",
      "Ġs kept",
      "Ġp iece",
      "ou d",
      "ou ra",
      "Ġd er",
      "Ġd omin",
      "Ġe qu",
      "Ġre ve",
      "Ġg ive",
      "Ġon es",
      "Ġst ates",
      "Ġha nd",
      "ol it",
      "Ġsu ccess",
      "ĠG ree",
      "Ġpr inci",
      "th ough",
      "Ġex am",
      "Ġab s",
      "Ġde ep",
      "Ġev il",
      "Ġcom es",
      "ere d",
      "Ġfa ith",
      "Ġmoral s",
      "ĠS ch",
      "Ġsome one",
      "Ġgr ow",
      "Ġbelie f",
      "Ġapp ro",
      "ishe d",
      "Ġrelig ion",
      "Ġexperi ence",
      "Ġexcept ion",
      "ĠChrist ian",
      "Ġauth or",
      "b it",
      "b or",
      "i a",
      "i ble",
      "n ing",
      "p r",
      "r ine",
      "u nder",
      "w here",
      "w hich",
      "Ġ U",
      "Ġ est",
      "is s",
      "on s",
      "en e",
      "Ġp ain",
      "Ġc reat",
      "Ġh id",
      "Ġm edi",
      "an ge",
      "ar m",
      "Ġe ars",
      "Ġn ame",
      "Ġl ight",
      "et y",
      "Ġfor ce",
      "Ġu ltim",
      "ig h",
      "ur y",
      "Ġcon ce",
      "Ġsu pp",
      "Ġ1 4",
      "ci ous",
      "Ġfr ie",
      "ĠW e",
      "Ġany thing",
      "ĠGerman s",
      "Ġknow ledge",
      "Ġpers pect",
      "Ġgreat est",
      "iz e",
      "iz ed",
      "Ġhuman ity",
      "Ġdec is",
      "Ġmod ern",
      "Ġsec ond",
      "Ġran k",
      "Ġphilosoph ical",
      "1 4",
      "I f",
      "b r",
      "e ople",
      "h o",
      "i er",
      "o ther",
      "r ong",
      "u c",
      "u ine",
      "Ġ ing",
      "Ġ Th",
      "Ġa ble",
      "Ġs l",
      "Ġs la",
      "Ġs ince",
      "en h",
      "Ġc our",
      "Ġf am",
      "Ġf ather",
      "Ġh y",
      "Ġm ast",
      "an ity",
      "an ces",
      "Ġd ay",
      "Ġd est",
      "ic es",
      "Ġwh ile",
      "Ġg u",
      "ut e",
      "Ġal one",
      "Ġ1 2",
      "us ion",
      "ive ly",
      "Ġde v",
      "iv ed",
      "Ġint erest",
      "Ġfa il",
      "Ġar r",
      "ap hy",
      "Ġhow ever",
      "Ġinst ance",
      "Ġam ong",
      "ĠO n",
      "Ġca us",
      "Ġad m",
      "Ġad v",
      "Ġvirt ue",
      "Ġread ing",
      "Ġwrit ings",
      "Ġcond ition",
      "Ġcond itions",
      "Ġsuff ering",
      "Ġhist ory",
      "Ġext ent",
      "Ġsoci ety",
      "Ġstu pid",
      "Ġcult ure",
      "Ġey es",
      "Ġunt il",
      "Ġdoct rine",
      "! '",
      "1 9",
      "? '",
      "H ow",
      "a ut",
      "c om",
      "c ce",
      "d e",
      "f t",
      "i x",
      "i res",
      "l ike",
      "s ess",
      "v ol",
      "Ġt urn",
      "in es",
      "Ġs c",
      "Ġs m",
      "Ġs he",
      "Ġs il",
      "it her",
      "at ural",
      "en ed",
      "Ġp ar",
      "Ġp ath",
      "Ġto get",
      "ed om",
      "st ood",
      "ar ily",
      "Ġe ffect",
      "om o",
      "om en",
      "om an",
      "op enh",
      "ver se",
      "ol s",
      "Ġ1 7",
      "Ġex ist",
      "Ġall ow",
      "Ġde m",
      "Ġne cess",
      "Ġse en",
      "Ġyou ng",
      "Ġme ant",
      "ĠP ublishes",
      "Ġpro cess",
      "Ġfe ar",
      "au g",
      "un ity",
      "Ġother s",
      "ĠH e",
      "ĠH uman",
      "Ġgen uine",
      "fere nce",
      "Ġdes p",
      "ab ly",
      "Ġide al",
      "Ġcle arly",
      "Ġbet ter",
      "Ġher d",
      "Ġhon or",
      "Ġcomm and",
      "Ġfin ally",
      "Ġop in",
      "Ġpla ce",
      "Ġmis under",
      "vel op",
      "cient ific",
      "Ġconst ant",
      "Ġple asure",
      "Ġeas ily",
      "Ġfundam ental",
      "Ġtoget her",
      "openh au",
      "a red",
      "f ort",
      "g es",
      "h od",
      "h ip",
      "l er",
      "l ud",
      "m od",
      "n y",
      "p s",
      "p os",
      "r or",
      "r ary",
      "u ation",
      "Ġa ction",
      "he st",
      "Ġs ing",
      "Ġp ur",
      "Ġp ast",
      "Ġto p",
      "Ġf ur",
      "Ġf un",
      "Ġm on",
      "Ġb l",
      "Ġd el",
      "Ġn or",
      "Ġre p",
      "ent ed",
      "ent ial",
      "Ġg iven",
      "et he",
      "Ġan im",
      "Ġan other",
      "Ġst op",
      "Ġha ving",
      "if y",
      "Ġph ys",
      "Ġcom ple",
      "Ġthere fore",
      "Ġsh ame",
      "ĠP lat",
      "Ġany one",
      "Ġus ed",
      "ter n",
      "Ġch ild",
      "un g",
      "Ġty p",
      "Ġres ult",
      "Ġam ount",
      "Ġperson al",
      "Ġpos sess",
      "ĠR e",
      "Ġdif fic",
      "Ġcl ose",
      "ru el",
      "Ġright s",
      "Ġspe ci",
      "ĠâĢ ĺ",
      "Ġyour self",
      "Ġsens es",
      "Ġreg ard",
      "ren ch",
      "Ġfoll ow",
      "Ġprinci ple",
      "Ġexam ple",
      "ĠSch openhau",
      "Ġcour se",
      "Ġdiffic ult",
      "F or",
      "I I",
      "a ir",
      "g o",
      "g ing",
      "i ar",
      "j ud",
      "o b",
      "o le",
      "r uth",
      "s ion",
      "t i",
      "u ous",
      "v ious",
      "Ġt em",
      "Ġt ask",
      "he t",
      "is es",
      "is ed",
      "Ġs at",
      "Ġs cientific",
      "Ġw rong",
      "er y",
      "er haps",
      "Ġ\" )",
      "en ing",
      "Ġp ra",
      "Ġh al",
      "Ġh old",
      "Ġm a",
      "Ġm al",
      "Ġm ention",
      "Ġd ra",
      "Ġd own",
      "ic ate",
      "Ġn um",
      "Ġl ate",
      "Ġl ive",
      "Ġl iving",
      "ut ure",
      "im in",
      "Ġas pect",
      "Ġan cient",
      "ur d",
      "ur ing",
      "os ity",
      "Ġwith in",
      "Ġsu s",
      "Ġpr ide",
      "Ġpr odu",
      "Ġv anity",
      "Ġde p",
      "Ġde al",
      "Ġne g",
      "ĠE cce",
      "ĠB er",
      "Ġfr ont",
      "Ġev ent",
      "Ġle vel",
      "Ġar ound",
      "ĠS t",
      "Ġpre d",
      "Ġknow s",
      "ĠH omo",
      "Ġbec om",
      "Ġgen ius",
      "Ġte nd",
      "Ġhig hest",
      "Ġcont ra",
      "Ġad d",
      "Ġacc ount",
      "Ġent ire",
      "Ġspe ak",
      "Ġcertain ly",
      "Ġdr ives",
      "Ġview s",
      "Ġmet hod",
      "Ġhist or",
      "Ġpsych olog",
      "ocr atic",
      "Ġschol ars",
      "Ġpl ay",
      "Ġconc ern",
      "Ġbeg in",
      "Ġinterpret ation",
      "Ġear th",
      "Ġdet erm",
      "oura ge",
      "ĠGree k",
      "Ġappro ach",
      "Ġhid den",
      "Ġmedi oc",
      "Ġultim ately",
      "Ġsla ve",
      "aphy s",
      "a ve",
      "b e",
      "c on",
      "c ul",
      "c ause",
      "f or",
      "m p",
      "o ethe",
      "r y",
      "r ust",
      "u nt",
      "w hat",
      "y si",
      "Ġ i",
      "Ġa ff",
      "Ġs it",
      "er ful",
      "Ġp eri",
      "Ġp ubl",
      "Ġc ame",
      "Ġc ount",
      "Ġc ruel",
      "Ġf uture",
      "Ġh ars",
      "Ġb re",
      "Ġb it",
      "Ġth ough",
      "Ġth ree",
      "Ġd one",
      "Ġd ire",
      "ar i",
      "ar ks",
      "Ġn orm",
      "Ġbe aut",
      "ct ive",
      "im ent",
      "Ġfor get",
      "ir th",
      "Ġcon tain",
      "el lect",
      "The se",
      "pe ci",
      "ĠG oethe",
      "Ġpr oud",
      "man n",
      "ate ver",
      "qu e",
      "Ġr is",
      "Ġde f",
      "ĠE very",
      "Ġdo ing",
      "ure s",
      "Ġint ellect",
      "Ġle ft",
      "og n",
      "ĠW hen",
      "Ġsh ow",
      "Ġar gu",
      "ĠA ll",
      "Ġevery one",
      "Ġpre jud",
      "ĠGerman y",
      "ac r",
      "Ġspirit s",
      "Ġty r",
      "ult i",
      "Ġ2 0",
      "ĠF rench",
      "ĠO r",
      "Ġfeel ings",
      "ĠT o",
      "Ġacc ording",
      "Ġcl ass",
      "ĠEurope an",
      "Ġent r",
      "Ġob ject",
      "ict ion",
      "Ġatt empt",
      "Ġref ined",
      "Ġinv ol",
      "Ġhapp ens",
      "Ġexperi ences",
      "Ġmet aphys",
      "Ġlit er",
      "Ġproble ms",
      "Ġget s",
      "ug g",
      "Ġcent ury",
      "Ġpartic ular",
      "Ġappear ance",
      "Ġfrie nds",
      "Ġhy p",
      "Ġsing le",
      "Ġtop ics",
      "ĠSchopenhau er",
      "ĠBer lin",
      "Ġmedioc re",
      "Ġperi od",
      "2 3",
      "2 5",
      "2 7",
      "E ven",
      "S o",
      "T o",
      "W ith",
      "W hy",
      "Y ou",
      "a z",
      "a us",
      "a ust",
      "c u",
      "f ace",
      "i ally",
      "i vers",
      "l ic",
      "m at",
      "n e",
      "r ow",
      "s u",
      "s ue",
      "t ed",
      "w ay",
      "Ġ kn",
      "Ġ vers",
      "Ġ xx",
      "Ġt re",
      "Ġt er",
      "Ġt reat",
      "Ġt ell",
      "Ġt imes",
      "Ġa ffect",
      "re t",
      "re am",
      "Ġw a",
      "Ġc he",
      "Ġc ol",
      "Ġc ap",
      "Ġc ases",
      "Ġf ul",
      "Ġf als",
      "Ġh ate",
      "Ġm ain",
      "Ġm em",
      "Ġm ere",
      "or ough",
      "Ġb ase",
      "Ġth orough",
      "ing ly",
      "al th",
      "Ġin n",
      "Ġd en",
      "Ġd ream",
      "le m",
      "Ġe p",
      "Ġn atural",
      "Ġl ist",
      "Ġl ang",
      "Ġl aug",
      "ut ed",
      "im s",
      "Ġas k",
      "Ġhe ar",
      "ig ra",
      "Ġst ud",
      "id d",
      "id ence",
      "ul sion",
      "Ġsu per",
      "Ġpr im",
      "Ġpr iv",
      "ad s",
      "est s",
      "qu ire",
      "Ġde velop",
      "Ġne igh",
      "ĠE p",
      "iv id",
      "Ġdo g",
      "ight s",
      "ĠN o",
      "Ġfa v",
      "Ġar ist",
      "ore d",
      "Ġknow n",
      "Ġen j",
      "Ġim ag",
      "ĠM oral",
      "ri ed",
      "Ġtruth s",
      "ĠO ur",
      "Ġpos si",
      "Ġra ce",
      "ab ility",
      "Ġob s",
      "Ġpower ful",
      "Ġinc lud",
      "Ġins p",
      "Ġquest ions",
      "Ġrelig ious",
      "are nt",
      "Ġmod est",
      "Ġcall s",
      "Ġconst it",
      "Ġfore ground",
      "Ġmat ter",
      "Ġmean ing",
      "Ġexpl an",
      "Ġschol ar",
      "Ġdeg ree",
      "ĠFr ance",
      "Ġk ind",
      "Ġconse qu",
      "Ġinde pend",
      "Ġskept icism",
      "Ġequ al",
      "Ġdecis ive",
      "Ġmisunder stand",
      "mod ern",
      "Ġanim al",
      "Ġcomple te",
      "ĠPlat o",
      "Ġspeci es",
      "Ġhal f",
      "Ġpubl ic",
      "Ġhars h",
      "Ġris k",
      "ivers ity",
      "Ġlang u",
      "2 4",
      "A s",
      "N ow",
      "N ietzsche",
      "P eople",
      "W hen",
      "a pe",
      "a bl",
      "b ably",
      "c rib",
      "d den",
      "e ad",
      "f orm",
      "g er",
      "i en",
      "i led",
      "l u",
      "l us",
      "l and",
      "r om",
      "r ich",
      "y n",
      "y r",
      "Ġt aken",
      "in a",
      "re as",
      "Ġs ed",
      "Ġs acr",
      "er t",
      "er ve",
      "at i",
      "en er",
      "en ess",
      "Ġp olit",
      "Ġc ause",
      "Ġc ourage",
      "Ġf ra",
      "Ġh und",
      "Ġh arm",
      "Ġm ind",
      "Ġm aking",
      "Ġm ulti",
      "or k",
      "Ġb ro",
      "Ġb ody",
      "an y",
      "Ġd on",
      "ic ious",
      "om p",
      "Ġbe yond",
      "Ġl ies",
      "Ġl ab",
      "Ġg ain",
      "Ġno bility",
      "op les",
      "Ġfor t",
      "Ġu nd",
      "ig ure",
      "Ġ- \"",
      "Ġst y",
      "Ġst ep",
      "Ġha nds",
      "os ed",
      "id ed",
      "if ies",
      "if ice",
      "if ied",
      "el t",
      "Ġsu g",
      "Ġsu dden",
      "ĠG e",
      "ĠI f",
      "th s",
      "Ġ1 3",
      "Ġwe ak",
      "Ġex pect",
      "Ġwill ing",
      "us s",
      "ich ard",
      "ant s",
      "iv ity",
      "Ġy e",
      "Ġwor st",
      "og ra",
      "Ġman ner",
      "Ġdis gu",
      "Ġqu al",
      "ful ness",
      "Ġstr ugg",
      "Ġres ist",
      "Ġunder stood",
      "Ġgr ou",
      "Ġval u",
      "Ġsoul s",
      "act es",
      "Ġent h",
      "pl ic",
      "ĠV ers",
      "Ġlook ing",
      "Ġcle ar",
      "Ġreason s",
      "Ġgener ally",
      "Ġrem ark",
      "Ġsch o",
      "ĠK ant",
      "Ġstrong est",
      "Ġop en",
      "ĠJ ew",
      "Ġsec ret",
      "Ġcomp ulsion",
      "erv ation",
      "Ġsoci al",
      "ublishe d",
      "Ġey e",
      "Ġrec ogn",
      "Ġbelong s",
      "Ġsur pr",
      "Ġkeep s",
      "Ġfre quently",
      "Ġfre edom",
      "Ġdeg ener",
      "Ġoppos ite",
      "ged y",
      "Ġ18 8",
      "Ġes peci",
      "Ġru le",
      "Ġjudg ment",
      "Ġconse quently",
      "Ġprop er",
      "Ġimm edi",
      "Be cause",
      "ache d",
      "ĠU n",
      "Ġname ly",
      "Ġmast er",
      "Ġfur ther",
      "tern al",
      "Ġtem po",
      "Ġsus pic",
      "Ġbegin ning",
      "Ġcruel ty",
      "Ġcontain s",
      "Ġargu ments",
      "Ġmem ory",
      "igra ms",
      "ĠEp igrams",
      "Ġfav or",
      "Ġharsh ness",
      "Ġlangu age",
      "Ġhund red",
      "Ġespeci ally",
      "E very",
      "G erman",
      "H is",
      "N ot",
      "P erhaps",
      "e x",
      "e xt",
      "f ree",
      "h or",
      "i b",
      "i ogra",
      "n ect",
      "n ature",
      "o ok",
      "p irit",
      "p eri",
      "r t",
      "r on",
      "r op",
      "s w",
      "y ter",
      "Ġ id",
      "Ġt akes",
      "Ġt empt",
      "he l",
      "Ġo cc",
      "is on",
      "Ġs ound",
      "Ġs ays",
      "Ġs erv",
      "Ġw ar",
      "Ġw ond",
      "it er",
      "it ive",
      "en cy",
      "Ġp op",
      "Ġp hen",
      "Ġp ract",
      "Ġp ublished",
      "Ġc re",
      "Ġc ur",
      "Ġf l",
      "Ġf elt",
      "Ġh or",
      "Ġm as",
      "Ġm ask",
      "Ġb or",
      "Ġb ra",
      "Ġd ue",
      "le v",
      "ed ited",
      "ar ge",
      "Ġis sue",
      "il ar",
      "Ġbe h",
      "Ġl im",
      "Ġl ine",
      "as ant",
      "Ġre ach",
      "ent ially",
      "Ġwh atever",
      "Ġno body",
      "Ġhe ard",
      "Ġhe alth",
      "Ġan ti",
      "her s",
      "Ġcon nect",
      "ol ute",
      "if ul",
      "ist em",
      "Ġsu n",
      "ĠG ru",
      "Ġv is",
      "Ġ1 1",
      "Ġex c",
      "us i",
      "Ġde ce",
      "ain t",
      "iv al",
      "iv ism",
      "Ġy et",
      "Ġph ysi",
      "Ġse ver",
      "em ent",
      "Ġwor th",
      "Ġle d",
      "Ġso on",
      "ot t",
      "la g",
      "Ġfa ce",
      "Ġpro v",
      "Ġlo ves",
      "ĠS o",
      "eri al",
      "Ġknow ing",
      "Ġen c",
      "int erest",
      "Ġsomet imes",
      "Ġpo st",
      "Ġstr ange",
      "so ci",
      "Ġgreat er",
      "Ġneed ed",
      "Ġgr ound",
      "ĠR ichard",
      "ition al",
      "Ġcont ext",
      "Ġfeel s",
      "Ġart ists",
      "Ġread ers",
      "Ġob vious",
      "Ġlong er",
      "Ġcle ver",
      "Ġact ually",
      "18 8",
      "Ġbad ly",
      "Ġthought s",
      "Ġpres ent",
      "ific ation",
      "Ġinstinct s",
      "Ġwrit e",
      "Ġhon est",
      "Ġcomm unity",
      "Ġstrong er",
      "Ġ19 9",
      "Ġinf lu",
      "Ġass ess",
      "Ġoff end",
      "Ġstand ard",
      "Ġeas y",
      "Ġed uc",
      "Ġess ence",
      "Ġess entially",
      "Ġbeg ins",
      "Ġla w",
      "ĠFr om",
      "Ġtext s",
      "Ġes c",
      "Ġtal ent",
      "Ġsim ilar",
      "Ġmist rust",
      "Ġlearn ed",
      "Ġtransl ation",
      "Ġut ter",
      "Ġcrit ical",
      "ache s",
      "Ġreve al",
      "Ġabs urd",
      "Ġest abl",
      "br id",
      "Ġfam ous",
      "Ġinterest ing",
      "com ing",
      "Ġsm all",
      "Ġsil ent",
      "Ġdem and",
      "Ġopin ion",
      "Ġtyp es",
      "Ġaspect s",
      "Ġbecom es",
      "Ġpsycholog ist",
      "Ġbeaut iful",
      "Ġtyr an",
      "Ġhyp ot",
      "Ġwa it",
      "Ġche erful",
      "Ġmere ly",
      "Ġthorough ly",
      "Ġep istem",
      "Ġneigh bor",
      "ivid ual",
      "Ġenj oy",
      "Ġbro ad",
      "Ġfort un",
      "Ġsug g",
      "Ġqual ities",
      "Ġstrugg le",
      "Ġimmedi ately",
      "Ġpop ular",
      "Ġphen omen",
      "ĠGru yter",
      "' :",
      ") :",
      "2 1",
      "B y",
      "H ere",
      "S ome",
      "X I",
      "a il",
      "c ult",
      "c ont",
      "d s",
      "e an",
      "e qu",
      "g an",
      "g ust",
      "h ow",
      "h ilosop",
      "i h",
      "m er",
      "m end",
      "o ly",
      "o ke",
      "o ot",
      "o int",
      "o ved",
      "p on",
      "p ar",
      "p ers",
      "r oss",
      "t ers",
      "u ly",
      "Ġ ver",
      "Ġ ign",
      "Ġt aking",
      "in ate",
      "is ing",
      "is che",
      "Ġs et",
      "Ġs ol",
      "Ġs ake",
      "Ġs olit",
      "er ke",
      "er ves",
      "er lag",
      "it ar",
      "it ude",
      "Ġ\" (",
      "Ġ\" ,",
      "Ġc ir",
      "Ġto ok",
      "Ġf at",
      "Ġf igure",
      "Ġb u",
      "Ġth reat",
      "al e",
      "Ġd ate",
      "Ġd ie",
      "le ction",
      "ic ians",
      "Ġe t",
      "Ġn am",
      "ly ing",
      "om et",
      "Ġl at",
      "Ġl arge",
      "Ġre t",
      "Ġre ven",
      "Ġre ference",
      "op h",
      "Ġfor g",
      "Ġfor ms",
      "Ġfor ced",
      "ir m",
      "Ġal ong",
      "Ġan sw",
      "Ġst ars",
      "Ġst ory",
      "os es",
      "ra d",
      "ul arly",
      "Ġor d",
      "Ġv ar",
      "Ġv ols",
      "am ed",
      "qu ent",
      "Ġab ility",
      "Ġde pend",
      "ĠE pic",
      "ĠB irth",
      "ure d",
      "Ġse x",
      "Ġev al",
      "Ġev ents",
      "Ġev idence",
      "ĠN ap",
      "Ġtr uly",
      "Ġcom pre",
      "pt ion",
      "oral ity",
      "og ress",
      "ĠW ill",
      "Ġsh ows",
      "Ġfa ir",
      "Ġpro ject",
      "Ġpro bably",
      "Ġus ing",
      "ĠA n",
      "Ġlo st",
      "Ġpre t",
      "Ġqu ot",
      "Ġsome what",
      "Ġch ur",
      "Ġlike ly",
      "ac ity",
      "It s",
      "cc ording",
      "ĠH or",
      "Ġcons ist",
      "Ġpo et",
      "Ġover c",
      "Ġ2 8",
      "ĠF or",
      "ĠF ried",
      "Ġwant ed",
      "um ing",
      "ress ion",
      "ĠR oman",
      "iz ing",
      "iz ation",
      "Ġcont in",
      "Ġcont rary",
      "Ġdes ire",
      "Ġind ic",
      "Ġind ividual",
      "Ġapp re",
      "Ġapp arent",
      "Ġ8 7",
      "Ġmy self",
      "ĠV erlag",
      "ĠL e",
      "ĠL et",
      "Ġlook s",
      "Ġcle an",
      "Ġins ist",
      "Ġchar m",
      "ont in",
      "Ġconsid ered",
      "Ġatt ract",
      "Ġrem arks",
      "Ġsuff er",
      "Ġem er",
      "Ġem ph",
      "Ġ19 8",
      "Ġreal m",
      "Ġreal ity",
      "Ġunderstand ing",
      "Ġform ul",
      "Ġstu ck",
      "Ġheart s",
      "Ġtal k",
      "Ġserious ly",
      "Ġtransl ated",
      "Ġspiritual ity",
      "Ġrare ly",
      "Ġill usion",
      "Ġinde ed",
      "Ġreve re",
      "Ġstates man",
      "Ġdeep ly",
      "Ġexception al",
      "ĠChristian ity",
      "Ġfather land",
      "Ġstupid ity",
      "How ever",
      "Ġconstant ly",
      "Ġmon str",
      "Ġamount s",
      "ole on",
      "Ġnum ber",
      "Ġdeal ing",
      "Ġcontra st",
      "Ġspeak s",
      "Ġsit uation",
      "Ġdire ct",
      "Ġnorm al",
      "Ġliter ature",
      "Ġkn ew",
      "Ġdog mat",
      "Ġarist ocratic",
      "Ġsed u",
      "Ġsty le",
      "ĠJew s",
      "Ġcre ate",
      "Ġesc ape",
      "Ġutter ly",
      "Ġhypot hes",
      "Ġepistem ological",
      "Ġnam es",
      "Ġreven ge",
      "ĠNap oleon",
      "ĠFried rich",
      "2 6",
      "4 5",
      "6 7",
      "A l",
      "A t",
      "C oll",
      "M ontin",
      "a ul",
      "a ive",
      "a res",
      "a pp",
      "b re",
      "b ble",
      "b its",
      "c o",
      "d om",
      "g ab",
      "h ist",
      "h aust",
      "i que",
      "l iness",
      "l ier",
      "m ore",
      "n ces",
      "n ew",
      "o id",
      "o ble",
      "p ly",
      "p ro",
      "r ol",
      "s pirit",
      "u pp",
      "v al",
      "y ed",
      "Ġ :",
      "Ġ ?",
      "Ġ z",
      "Ġ ir",
      "in ation",
      "is f",
      "Ġs k",
      "Ġs ick",
      "Ġs aint",
      "Ġw it",
      "Ġw ays",
      "at ory",
      "en n",
      "Ġp p",
      "Ġp ess",
      "Ġc ra",
      "Ġto t",
      "Ġto uch",
      "Ġto ler",
      "Ġf al",
      "Ġf il",
      "Ġf ate",
      "Ġf em",
      "Ġf our",
      "Ġm er",
      "Ġm om",
      "Ġm ag",
      "Ġm ass",
      "Ġm ix",
      "or ies",
      "Ġb le",
      "Ġb ar",
      "Ġb us",
      "Ġb old",
      "Ġb ott",
      "Ġth us",
      "Ġth irst",
      "al ian",
      "al ys",
      "Ġd ut",
      "Ġd ig",
      "Ġd iv",
      "ed y",
      "ed ing",
      "Ġe ither",
      "Ġe go",
      "il iar",
      "se e",
      "Ġl u",
      "Ġl ie",
      "ve ment",
      "Ġre st",
      "Ġre verse",
      "Ġre quire",
      "ent h",
      "ent le",
      "ent ally",
      "ent ions",
      "Ġg e",
      "Ġg entle",
      "ut ious",
      "Ġhe av",
      "Ġal though",
      "Ġ- )\"",
      "ch ie",
      "Ġha bits",
      "os ition",
      "id er",
      "Ġnot es",
      "if t",
      "ra se",
      "Ġmo ther",
      "âĢ Ķ",
      "Ġsu m",
      "Ġsu bl",
      "Ġsu peri",
      "Ġ( '",
      "Ġ( Â§",
      "ation al",
      "Ġpr om",
      "Ġpr ot",
      "th ink",
      "ad ly",
      "est ined",
      "am brid",
      "ci pl",
      "Ġab und",
      "Ġr ul",
      "Ġr un",
      "Ġne ither",
      "Ġph il",
      "Ġph ilos",
      "Ġph rase",
      "Ġse par",
      "ast s",
      "iet y",
      "Ġso lem",
      "Ġsp read",
      "ĠP r",
      "ĠP ro",
      "ĠP eople",
      "ĠP hilosop",
      "ĠP aul",
      "Ġfa cult",
      "Ġar bit",
      "Ġevery where",
      "Ġdis e",
      "Ġdis pos",
      "Ġdis gust",
      "Ġdis cipl",
      "ĠS e",
      "au f",
      "Ġsome body",
      "Ġsome how",
      "eri z",
      "ac y",
      "Ġexp er",
      "int e",
      "Ġbec ame",
      "si a",
      "Ġgood will",
      "Ġim age",
      "ens ion",
      "Ġstr ik",
      "ag es",
      "rit ische",
      "Ġ2 5",
      "Ġwant ing",
      "Ġgreat ness",
      "ri ble",
      "Ġinst ead",
      "Ġthink s",
      "Ġca re",
      "Ġca utious",
      "Ġra ces",
      "Ġra bble",
      "Ġrel ated",
      "Ġrel ations",
      "Ġsay ing",
      "Ġcont em",
      "Ġdes ires",
      "Ġbelie ves",
      "und ity",
      "ĠD e",
      "ĠD ion",
      "ĠT ra",
      "Ġacc ess",
      "Ġart istic",
      "Ġcl os",
      "Ġhuman s",
      "Ġmy st",
      "Ġmy th",
      "Ġpoint s",
      "ict ions",
      "Ġinc lin",
      "Ġinc reas",
      "Ġimp ort",
      "end ed",
      "Ġpres upp",
      "Ġinstinct ively",
      "Ġdang ers",
      "Ġatt rib",
      "Ġgo ing",
      "Ġopp ort",
      "Ġhon ors",
      "Ġhon ored",
      "Ġrem ain",
      "Ġprof undity",
      "Ġcomm on",
      "ĠK ritische",
      "Ġfin al",
      "Ġdist inct",
      "Ġhapp ened",
      "Ġdr ive",
      "Ġpla ces",
      "Ġsee ing",
      "Ġdisc ove",
      "Ġcr ude",
      "Ġconcept ion",
      "Ġac know",
      "Ġac ross",
      "Ġpsych ology",
      "Ġfore ign",
      "Ġmat erial",
      "Ġhard ly",
      "On e",
      "Ġed ition",
      "Ġconsider ation",
      "Ġconsider able",
      "ative ly",
      "Ġbas is",
      "Ġbas ed",
      "Ġback ground",
      "Ġsy m",
      "Ġsy nt",
      "Ġsign s",
      "Ġserious ness",
      "Ġpass ion",
      "Ġfoll ows",
      "Ġtry ing",
      "Ġjudg ments",
      "Ġexpress ion",
      "Ġpartic ularly",
      "ĠY es",
      "ĠY ou",
      "Ġgod s",
      "Ġer ror",
      "Ġdomin ant",
      "Ġgrow th",
      "Ġpain ful",
      "Ġconce al",
      "Ġperspect ive",
      "Ġperspect ivism",
      "Ġdest ro",
      "vol ution",
      "Ġexist ence",
      "Ġopin ions",
      "ĠRe volution",
      "Ġclose ly",
      "het ic",
      "Ġsat isf",
      "Ġpra ise",
      "Ġmal icious",
      "Ġpred estined",
      "Ġtend ency",
      "Ġhistor ical",
      "mp at",
      "Ġintellect ual",
      "Ġprejud ice",
      "ĠTo o",
      "Ġinvol unt",
      "aus gab",
      "Ġful l",
      "Ġask ed",
      "idd le",
      "Ġimag ine",
      "Ġinclud ing",
      "Ġinsp ire",
      "Ġexplan ation",
      "Ġconsequ ences",
      "Ġindepend ent",
      "Ġsacr ifice",
      "ati ence",
      "Ġsudden ly",
      "Ġye ars",
      "Ġenth usi",
      "Ġremark able",
      "Ġscho ol",
      "ĠUn iversity",
      "iogra ph",
      "hel m",
      "Ġbeh ind",
      "interest ed",
      "Ġinflu ence",
      "Ġassess ment",
      "Ġoffend s",
      "Ġeduc ation",
      "Ġbroad er",
      "Ġcir c",
      "Ġchur ch",
      "Ġemph as",
      "Coll i",
      "Montin ari",
      "Ġpess im",
      "Ġfal se",
      "Ġbott om",
      "alys is",
      "ambrid ge",
      "Ġsolem n",
      "Ġfacult y",
      "Ġarbit rary",
      "ausgab e",
      "' )",
      ") ;",
      "0 0",
      "6 5",
      "6 6",
      "7 0",
      "7 2",
      "7 3",
      "9 0",
      "A ccording",
      "C on",
      "F rom",
      "L et",
      "M y",
      "N o",
      "O f",
      "S A",
      "b ing",
      "b ad",
      "c alled",
      "d u",
      "d is",
      "e enth",
      "f r",
      "f ect",
      "f ather",
      "h uman",
      "h amed",
      "i ent",
      "i os",
      "i um",
      "i osity",
      "j or",
      "l ing",
      "l ight",
      "m it",
      "m on",
      "m atic",
      "n ow",
      "o f",
      "p in",
      "p or",
      "p ond",
      "r s",
      "r ies",
      "r ont",
      "r imin",
      "s ince",
      "t empt",
      "t ruth",
      "u it",
      "v ii",
      "w ise",
      "w oman",
      "Ġ *",
      "Ġ x",
      "Ġ {",
      "Ġ âĢĻ",
      "Ġt est",
      "Ġt able",
      "Ġa v",
      "Ġa str",
      "Ġa ims",
      "he d",
      "he nd",
      "in c",
      "in ity",
      "in ction",
      "in ary",
      "Ġo d",
      "Ġo bl",
      "Ġthe ory",
      "re ct",
      "re edom",
      "is y",
      "is hing",
      "Ġs on",
      "Ġs ist",
      "Ġs ich",
      "Ġs ight",
      "Ġw ound",
      "Ġw ild",
      "it an",
      "it le",
      "it ation",
      "on al",
      "Ġp et",
      "Ġp ot",
      "Ġp our",
      "Ġp ict",
      "Ġc e",
      "Ġc o",
      "Ġc op",
      "Ġto r",
      "Ġf all",
      "Ġh ide",
      "Ġh um",
      "Ġh ome",
      "Ġm in",
      "or ic",
      "Ġb ow",
      "Ġb our",
      "Ġb ene",
      "Ġth ir",
      "ou n",
      "Ġd i",
      "Ġd om",
      "Ġd ance",
      "Ġd uring",
      "ic ht",
      "ar ing",
      "ar row",
      "Ġe con",
      "Ġe ternal",
      "Ġe lev",
      "Ġn one",
      "Ġn aive",
      "Ġn arrow",
      "om y",
      "il itar",
      "se t",
      "Ġl i",
      "Ġl og",
      "Ġl ik",
      "ve re",
      "as h",
      "ce ll",
      "Ġre vol",
      "Ġg iving",
      "ut es",
      "et er",
      "et erm",
      "Ġas soci",
      "Ġas hamed",
      "Ġal ive",
      "Ġan alysis",
      "Ġst ance",
      "id en",
      "id es",
      "id ity",
      "ol t",
      "el ig",
      "Ġmo t",
      "Ġor gan",
      "The ir",
      "ĠI I",
      "Ġv o",
      "Ġv on",
      "Ġv ul",
      "Ġv ice",
      "Ġex er",
      "Ġex ag",
      "Ġex haust",
      "Ġwill s",
      "ate ful",
      "us ing",
      "us ed",
      "us ions",
      "ous ly",
      "ci p",
      "Ġne xt",
      "ant ly",
      "ĠB as",
      "ge o",
      "Ġpe oples",
      "Ġdo or",
      "Ġdo cu",
      "che s",
      "Ġse es",
      "Ġfr ight",
      "Ġyou th",
      "Ġint ention",
      "ast r",
      "Ġcom fort",
      "pt om",
      "ond itional",
      "Ġwor s",
      "Ġj oy",
      "Ġle g",
      "Ġsp ell",
      "Ġsp ite",
      "ĠW ho",
      "ĠW erke",
      "ot ten",
      "kn ess",
      "Th us",
      "ĠP ress",
      "Ġmoral ities",
      "Ġus es",
      "Ġus ually",
      "ĠA t",
      "ĠS ocr",
      "Ġfe ature",
      "ect ion",
      "ment ed",
      "Ġpre f",
      "Ġpre p",
      "Ġqu iet",
      "Ġqu ick",
      "Ġun f",
      "Ġun re",
      "Ġch a",
      "Ġch ang",
      "Ġch ange",
      "ind ed",
      "un ish",
      "un ately",
      "Ġen orm",
      "ism s",
      "Ġjust ice",
      "ĠH ow",
      "Ġcons ists",
      "ens ch",
      "ens ive",
      "Ġpo or",
      "Ġpo ison",
      "Ġover all",
      "Ġstr ict",
      "Ġ2 2",
      "Ġ2 3",
      "Ġ2 4",
      "ĠM et",
      "bl ing",
      "Ġres pon",
      "um e",
      "oc k",
      "Ġsub t",
      "Ġte ach",
      "Ġte nds",
      "Ġgr own",
      "Ġthink ers",
      "Ġca pt",
      "Ġdes crib",
      "Ġbelie ved",
      "ru ction",
      "pl es",
      "Ġspe e",
      "Ġob edi",
      "Ġide a",
      "Ġfind s",
      "Ġdiffere nce",
      "Ġact s",
      "Ġsort s",
      "Ġins ide",
      "Ġins ights",
      "Ġgener ations",
      "Ġclaim s",
      "Ġap hor",
      "Ġgo es",
      "ĠK auf",
      "Ġfin ery",
      "Ġinv ented",
      "Ġdist ur",
      "Ġdist ance",
      "Ġhapp y",
      "Ġem p",
      "Ġinf re",
      "Ġdisc over",
      "Ġdisc uss",
      "Ġconcept s",
      "Ġext re",
      "to o",
      "Ġac cept",
      "Ġput ting",
      "Ġpsych ological",
      "Ġmat ters",
      "Ġcharact eriz",
      "Ġstart ed",
      "Ġexpl ic",
      "Ġappe ars",
      "On ly",
      "Ġsur face",
      "Ġbr ought",
      "Ġconc l",
      "Ġstate ments",
      "oss ary",
      "Ġoppos ed",
      "po ch",
      "Ġsy mpat",
      "Ġunc onditional",
      "Ġhigh ly",
      "Ġcharacter istic",
      "Ġsim ply",
      "Ġgra nd",
      "Ġsubject ive",
      "fic ial",
      "Ġut ilitar",
      "Ġtra its",
      "Ġconf ront",
      "Ġexpress ed",
      "Ġcor ru",
      "Ġcor rect",
      "Ġlack ing",
      "Ġconv iction",
      "Ġdomin ate",
      "Ġabs olute",
      "ons cious",
      "Ġsupp ort",
      "Ġsupp osed",
      "Ġfrie nd",
      "Ġsl ow",
      "Ġfam iliar",
      "Ġgu ess",
      "Ġfail ure",
      "Ġarr og",
      "Ġcaus es",
      "Ġadm it",
      "Ġadm ire",
      "Ġallow ed",
      "Ġnecess ity",
      "Ġfun ction",
      "Ġdel ight",
      "Ġrep res",
      "ify ing",
      "Ġchild ren",
      "Ġresult s",
      "Ġpossess ion",
      "ob ject",
      "Ġma jor",
      "Ġdra w",
      "Ġdep th",
      "Ġevent ually",
      "Ġadd ress",
      "Ġhistor ian",
      "Ġapproach ing",
      "Ġprejud ices",
      "Ġobject ive",
      "Ġmetaphys ical",
      "Ġtre mend",
      "Ġcap acity",
      "Ġinn oc",
      "Ġdream s",
      "Ġlist en",
      "Ġstud y",
      "Ġsuper ficial",
      "Ġprim arily",
      "Ġpriv ate",
      "Ġpriv ile",
      "Ġdevelop ment",
      "Ġcomplete ly",
      "Ġharm ful",
      "Ġmulti ple",
      "Ġexpect ed",
      "Ġgrou ps",
      "plic ity",
      "ĠVers uch",
      "Ġcur iosity",
      "Ġbra ve",
      "Ġconnect ed",
      "Ġstandard s",
      "Ġdemand ed",
      "Ġtyran ny",
      "Ġsugg ests",
      "pers pect",
      "Ġign oble",
      "Ġsolit ude",
      "Ġforg otten",
      "Ġoverc ome",
      "Ġattract ive",
      "Ġrevere nce",
      "Ġfil th",
      "Ġmom ents",
      "Ġmass es",
      "Ġbar bar",
      "Ġdiv ine",
      "Ġheav y",
      "Ġsubl ime",
      "Ġsuperi or",
      "Ġphilos o",
      "Ġdiscipl ine",
      "ĠTra gedy",
      "Ġimport ant",
      "Ġopport unity",
      "Ġdistinct ive",
      "Ġsym ptom",
      "Ġdestro yed",
      "rimin ating",
      "Ġpet ty",
      "Ġbour geo",
      "Ġthir d",
      "Ġexag ger",
      "Ġenorm ous",
      "Ġtremend ous",
      "' ,",
      "1 1",
      "2 0",
      "2 2",
      "2 8",
      "3 9",
      "4 3",
      "5 4",
      "? \"",
      "A n",
      "A ny",
      "E n",
      "O r",
      "P eter",
      "S t",
      "X V",
      "a x",
      "a ire",
      "a iled",
      "b s",
      "b ur",
      "b id",
      "b ers",
      "b ition",
      "c r",
      "c her",
      "c art",
      "c ific",
      "e al",
      "e ven",
      "e ffect",
      "e oples",
      "f ind",
      "f ten",
      "f reedom",
      "g y",
      "g ar",
      "g el",
      "h r",
      "i or",
      "i est",
      "i ate",
      "j ust",
      "l ook",
      "l iter",
      "m en",
      "m iss",
      "n ed",
      "n orm",
      "o v",
      "o x",
      "o z",
      "o th",
      "r ass",
      "s ing",
      "s ay",
      "s cience",
      "t ological",
      "u ct",
      "u ge",
      "v ous",
      "v ag",
      "w h",
      "w ith",
      "w helm",
      "y ing",
      "Ġ ;",
      "Ġ [",
      "Ġ )\"",
      "Ġ lying",
      "Ġt en",
      "Ġt ion",
      "Ġt im",
      "Ġt ension",
      "Ġa ud",
      "in ally",
      "in ine",
      "in ite",
      "in ology",
      "re r",
      "re ement",
      "is ion",
      "Ġs in",
      "Ġs le",
      "Ġs ide",
      "Ġs pect",
      "nd ing",
      "Ġw if",
      "Ġw and",
      "Ġw ish",
      "er a",
      "er ic",
      "er ation",
      "er ies",
      "it es",
      "it able",
      "at s",
      "at er",
      "at or",
      "at ch",
      "at ri",
      "at red",
      "on y",
      "on ic",
      "Ġ\" âĢĶ",
      "en ced",
      "es cart",
      "Ġp ure",
      "Ġp ress",
      "Ġp ublishes",
      "Ġc ar",
      "Ġc ust",
      "Ġc un",
      "Ġto ol",
      "Ġto ug",
      "Ġf ing",
      "Ġf ant",
      "Ġf ight",
      "Ġf oot",
      "Ġh ou",
      "Ġh om",
      "Ġh ope",
      "Ġh our",
      "Ġh oly",
      "Ġh atred",
      "Ġm ar",
      "Ġm ill",
      "Ġm ess",
      "Ġm iddle",
      "or th",
      "or man",
      "or ical",
      "Ġb on",
      "Ġb irth",
      "ou th",
      "al y",
      "al og",
      "Ġd u",
      "Ġd am",
      "Ġd ress",
      "Ġd are",
      "st ract",
      "st mann",
      "ic a",
      "ic ul",
      "ic ian",
      "ic ists",
      "ar is",
      "ar ies",
      "Ġis ol",
      "Ġe poch",
      "Ġn u",
      "Ġn on",
      "il led",
      "il ities",
      "Ġbe get",
      "Ġl ower",
      "Ġl ives",
      "Ġl oss",
      "Ġl ines",
      "as c",
      "as m",
      "as ion",
      "Ġit y",
      "ct s",
      "Ġre v",
      "Ġre str",
      "ent y",
      "Ġg re",
      "Ġg est",
      "Ġg ame",
      "ut ions",
      "et her",
      "ir ror",
      "Ġhe s",
      "Ġhe ld",
      "Ġhe ights",
      "ig or",
      "Ġon to",
      "Ġon tological",
      "Ġst ay",
      "Ġst ick",
      "Ġst urd",
      "Ġst ories",
      "Ġha bit",
      "ur ies",
      "ur ance",
      "os sible",
      "ol f",
      "ol ic",
      "Ġnot ion",
      "Ġnot ice",
      "ist ics",
      "el s",
      "el an",
      "el ess",
      "el led",
      "ra vag",
      "Ġmo od",
      "Ġmo vement",
      "Ġor i",
      "ĠG r",
      "ĠG ay",
      "ĠI nd",
      "Ġpr ol",
      "Ġpr ogress",
      "Ġv ent",
      "Ġv ol",
      "Ġv ain",
      "Ġv iv",
      "th at",
      "ad ame",
      "est ig",
      "Ġex act",
      "Ġex cell",
      "us es",
      "ci ences",
      "Ġab ys",
      "Ġr hy",
      "Ġr ob",
      "Ġr het",
      "Ġde vil",
      "Ġde cept",
      "ain ed",
      "ĠE m",
      "ant ed",
      "ant age",
      "ĠB ible",
      "Ġpe o",
      "Ġpe ace",
      "Ġpe asant",
      "che n",
      "ie f",
      "ure an",
      "Ġse ction",
      "Ġse vere",
      "ĠN ew",
      "Ġat tain",
      "Ġat av",
      "Ġtr ust",
      "Ġtr ium",
      "em s",
      "Ġint r",
      "Ġint im",
      "Ġint rodu",
      "Ġint entions",
      "Ġint ended",
      "Ġcom pl",
      "Ġcom edy",
      "res pond",
      "ilosop h",
      "Ġwor se",
      "Ġj eal",
      "Ġle ad",
      "Ġle ave",
      "Ġle ads",
      "Ġsp le",
      "ĠW hy",
      "ĠW rit",
      "ot e",
      "ot ic",
      "ot ion",
      "Th at",
      "Th ough",
      "la ce",
      "ĠP art",
      "ĠP erhaps",
      "ĠP eoples",
      "ud es",
      "ud ien",
      "Ġmoral ists",
      "Ġar ch",
      "Ġany way",
      "ĠA d",
      "ĠA l",
      "ĠA s",
      "ĠA rt",
      "ĠA sia",
      "Ġlo ved",
      "Ġdis ag",
      "Ġdis astr",
      "ĠS cience",
      "ĠS to",
      "ĠS po",
      "Ġpre v",
      "Ġpre ac",
      "ok es",
      "Ġqu e",
      "Ġqu i",
      "un ich",
      "Ġen g",
      "led ged",
      "ĠH er",
      "ĠH ist",
      "ful ly",
      "Ġcons cious",
      "si bility",
      "olog ically",
      "Ġover whelm",
      "Ġ2 1",
      "Ġ2 7",
      "ĠF aust",
      "ĠM ed",
      "ĠM unich",
      "ach t",
      "Ġag ree",
      "Ġsub st",
      "Ġam bition",
      "Ġgr ows",
      "Ġgr ateful",
      "Ġthan ks",
      "Ġthink er",
      "Ġpos ition",
      "Ġcont empt",
      "Ġdes c",
      "ass uming",
      "Ġbelie ving",
      "ual ity",
      "ish ness",
      "ĠD is",
      "ĠD ie",
      "Ġseem ed",
      "Ġind ust",
      "ĠT ruth",
      "Ġacc id",
      "Ġvirt uous",
      "Ġart s",
      "Ġapp rop",
      "ishe s",
      "Ġterm inology",
      "ru ctive",
      "Ġ8 8",
      "Ġ8 9",
      "ĠEurope ans",
      "Ġright ly",
      "ĠV olt",
      "Ġspe aking",
      "Ġspe cific",
      "Ġob e",
      "Ġend s",
      "Ġlong est",
      "hen s",
      "Ġact ivity",
      "Ġcertain ty",
      "Ġimp ly",
      "Ġimp ression",
      "Ġimp ossible",
      "18 5",
      "end ing",
      "Ġins ight",
      "Ġlet ting",
      "Ġpres um",
      "Ġpres que",
      "Ġpres ervation",
      "the less",
      "Ġwrit es",
      "Ġwrit ten",
      "Ġrem oved",
      "Ġaw are",
      "Ġinv ent",
      "Ġdist inction",
      "Ġhapp en",
      "Ġhapp iness",
      "Ġdr ink",
      "Ġem bar",
      "Ġorigin al",
      "Ġorigin ates",
      "Ġpla c",
      "Ġmet ap",
      "Ġreal ize",
      "Ġ3 2",
      "ĠJ es",
      "Ġfound ation",
      "Ġinf orm",
      "Ġdisc o",
      "Ġdisc riminating",
      "ph ilosoph",
      "erv ed",
      "Ġass um",
      "Ġ15 6",
      "Ġ15 8",
      "Ġke pt",
      "Ġcr oss",
      "Ġcr imin",
      "Ġ10 3",
      "Ġ10 4",
      "Ġext ravag",
      "Ġac quire",
      "Ġoff er",
      "Ġput s",
      "Ġsubtle ty",
      "Ġcult iv",
      "Ġcult ural",
      "Ġhard ness",
      "Ġran ge",
      "Ġ4 3",
      "Ġbr ings",
      "Ġconc lus",
      "Ġess ential",
      "Ġfre quent",
      "Ġbas ic",
      "Ġelse where",
      "Ġinterpret ations",
      "Ġear lier",
      "Ġunc le",
      "Ġunc onscious",
      "Ġcharacter istics",
      "me ly",
      "Ġpass age",
      "Ġfundam entally",
      "Ġmist ake",
      "Ġmist aken",
      "Ġgra b",
      "bar bar",
      "Ġut ility",
      "Ġtra gedy",
      "Ġcent uries",
      "ĠY ork",
      "Ġill usions",
      "Ġcor ner",
      "Ġgl adly",
      "Be yond",
      "ĠGree ce",
      "Ġprinci ples",
      "bor n",
      "ene alog",
      "Ġcreat ive",
      "Ġhid ing",
      "Ġultim ate",
      "Ġconce ived",
      "ĠTh us",
      "ĠTh ough",
      "Ġcaus ality",
      "Ġadv ent",
      "Ġsil ence",
      "verse ly",
      "Ġnecess arily",
      "aug ht",
      "ĠHe gel",
      "Ġdesp ise",
      "Ġcommand s",
      "Ġmisunder stood",
      "Ġpur p",
      "Ġpur su",
      "Ġmon st",
      "Ġbl ood",
      "Ġdel icate",
      "Ġphys ical",
      "Ġtyp ical",
      "Ġfollow ing",
      "Ġsat yr",
      "Ġmal ice",
      "Ġmention ed",
      "Ġdep ths",
      "ĠSt udien",
      "Ġbecom ing",
      "Ġdeterm ine",
      "Ġaff air",
      "Ġcount er",
      "Ġbre eding",
      "Ġdire ction",
      "az e",
      "lic he",
      "Ġvers ion",
      "Ġvers ions",
      "Ġaffect s",
      "Ġlaug h",
      "Ġpossi b",
      "Ġpossi bility",
      "Ġobs ervation",
      "Ġinclud es",
      "Ġinsp ires",
      "Ġconsequ ence",
      "Ġindepend ence",
      "Ġpolit ics",
      "Ġmind s",
      "Ġlab or",
      "ĠGe ist",
      "Ġdisgu ise",
      "Ġgrou p",
      "Ġvalu ations",
      "Ġrecogn ize",
      "Ġsurpr ising",
      "Ġdegener ate",
      "Ġsuspic ion",
      "Ġsuspic ious",
      "Every thing",
      "Ġid ent",
      "Ġocc asion",
      "Ġserv ice",
      "Ġmas cul",
      "Ġvis ual",
      "Ġexc lus",
      "Ġdece ive",
      "Ġsever al",
      "Ġsever ity",
      "Ġobvious ly",
      "Ġestabl ished",
      "Ġwait ing",
      "Ġphenomen a",
      "Ġphenomen on",
      "XI V",
      "omet hing",
      "Ġret urn",
      "Ġansw ers",
      "rad iction",
      "Ġord inary",
      "ĠEpic urean",
      "Ġeval u",
      "Ġcompre hend",
      "ĠHor stmann",
      "Ġappre ci",
      "Ġclean liness",
      "Ġ198 0",
      "Ġtalk ing",
      "Ġfatherland s",
      "Ġmonstr osity",
      "Ġhypothes es",
      "Al though",
      "enn ia",
      "Ġmix ed",
      "Ġbus iness",
      "Ġego ism",
      "Ġdispos al",
      "ĠSe e",
      "Ġexper iment",
      "Ġstrik es",
      "ĠDe ut",
      "Ġclos er",
      "Ġdiscove rer",
      "Ġacknow ledged",
      "Ġcirc um",
      "light en",
      "now ledge",
      "Ġobl ig",
      "Ġpict ure",
      "Ġcop ies",
      "Ġdom i",
      "Ġecon omy",
      "Ġelev ated",
      "Ġexer cise",
      "ĠBas le",
      "Ġwors hip",
      "ĠSocr ates",
      "Ġfeature s",
      "Ġpref er",
      "Ġchang es",
      "Ġsubt ler",
      "Ġobedi ence",
      "Ġaphor isms",
      "ĠKauf mann",
      "Ġdistur bing",
      "Ġinfre quently",
      "Ġexplic it",
      "Ġconcl usion",
      "Ġutilitar ian",
      "Ġabsolute ly",
      "object ive",
      "Ġprivile ges",
      "Ġbourgeo is",
      "cr atic",
      "Ġsle ep",
      "Ġwif i",
      "escart es",
      "Ġcust om",
      "Ġcun ning",
      "Ġtoug h",
      "Ġfant as",
      "Ġhou se",
      "Ġhour s",
      "Ġmill ennia",
      "Ġmess age",
      "Ġsturd y",
      "Ġviv is",
      "Ġabys s",
      "Ġjeal ous",
      "Ġdisastr ous",
      "ĠSpo ke",
      "Ġapprop ri",
      "ĠVolt aire",
      "Ġembar rass",
      "Ġconclus ions",
      "3 4",
      "4 2",
      "5 3",
      "6 4",
      "6 9",
      "7 6",
      "7 8",
      "7 9",
      "8 4",
      "8 8",
      "9 4",
      "9 5",
      "A b",
      "A ll",
      "B GE",
      "C ambridge",
      "F irst",
      "F inally",
      "H oll",
      "I nt",
      "J ust",
      "M oral",
      "M orality",
      "N e",
      "S e",
      "S la",
      "U n",
      "W ill",
      "X X",
      "a w",
      "a el",
      "a ction",
      "a kness",
      "b i",
      "b as",
      "b ors",
      "c f",
      "c le",
      "c ure",
      "c ertain",
      "c ular",
      "d m",
      "d ing",
[...]
